{"<s>":0,"<pad>":1,"</s>":2,"<unk>":3,"de":4,"▁e":5,"▁de":6,"▁l":7,"os":8,"▁p":9,"▁c":10,"▁a":11,"en":12,"er":13,"ar":14,"▁s":15,"ue":16,"as":17,"on":18,"es":19,"ci":20,"or":21,"an":22,"▁m":23,"que":24,"ad":25,"▁t":26,"▁que":27,"un":28,"st":29,"▁la":30,"▁en":31,"al":32,"re":33,"in":34,"▁y":35,"▁el":36,"ent":37,"▁n":38,"▁un":39,"▁h":40,"▁con":41,"do":42,"ón":43,"di":44,"om":45,"ti":46,"ra":47,"ro":48,"▁v":49,"▁se":50,"▁es":51,"▁f":52,"am":53,"▁los":54,"ic":55,"▁est":56,"ción":57,"▁par":58,"▁E":59,"▁o":60,"te":61,"▁su":62,"le":63,"▁re":64,"ab":65,"▁in":66,"ri":67,"▁com":68,"to":69,"ado":70,"▁por":71,"▁al":72,"ta":73,"▁del":74,"id":75,"ec":76,"▁las":77,"res":78,"▁b":79,"ol":80,"▁para":81,"▁no":82,"▁g":83,"mp":84,"▁una":85,"ente":86,"ía":87,"▁d":88,"▁di":89,"▁C":90,"ui":91,"▁A":92,"▁S":93,"ás":94,"▁P":95,"▁si":96,"▁L":97,"▁ha":98,"ación":99,"lo":100,"▁per":101,"is":102,"▁cu":103,"▁pro":104,"cion":105,"▁lo":106,"cu":107,"bi":108,"▁me":109,"la":110,"ch":111,"tu":112,"▁M":113,"ien":114,"da":115,"ada":116,"▁mu":117,"ter":118,"il":119,"▁des":120,"tr":121,"ma":122,"go":123,"▁más":124,"▁i":125,"ando":126,"ist":127,"qui":128,"ari":129,"▁to":130,"ce":131,"▁como":132,"cia":133,"ran":134,"us":135,"▁D":136,"mi":137,"mos":138,"tos":139,"aj":140,"vi":141,"ento":142,"▁ex":143,"mo":144,"tiv":145,"se":146,"ca":147,"el":148,"uest":149,"idad":150,"▁T":151,"▁\"":152,"iz":153,"▁po":154,"ales":155,"▁ac":156,"gu":157,"ciones":158,"▁ser":159,"era":160,"▁pue":161,"co":162,"▁j":163,"bre":164,"án":165,"pa":166,"ados":167,"si":168,"tar":169,"dad":170,"▁1":171,"ie":172,"▁El":173,"▁N":174,"tor":175,"ica":176,"▁tra":177,"den":178,"ero":179,"▁2":180,"▁so":181,"des":182,"▁te":183,"tes":184,"▁an":185,"ten":186,"ul":187,"▁ten":188,"▁(":189,"▁ap":190,"ras":191,"..":192,"▁res":193,"▁R":194,"ir":195,"▁B":196,"▁le":197,"ambi":198,"én":199,"ida":200,"ia":201,"▁La":202,"▁En":203,"ici":204,"dos":205,"io":206,"ru":207,"cer":208,"▁comp":209,"amos":210,"du":211,"▁G":212,"qu":213,"▁sus":214,"▁hab":215,"▁pre":216,"ores":217,"▁pero":218,"ante":219,"mente":220,"▁F":221,"po":222,"▁añ":223,"▁H":224,"tra":225,"ez":226,"per":227,"ico":228,"der":229,"▁ma":230,"gun":231,"▁I":232,"tro":233,"amente":234,"it":235,"los":236,"▁este":237,"▁pa":238,"orm":239,"▁U":240,"▁tien":241,"iv":242,"▁pr":243,"ara":244,"gar":245,"▁as":246,"ión":247,"▁imp":248,"▁man":249,"▁Est":250,"tre":251,"con":252,"ib":253,"▁mi":254,"▁ca":255,"▁much":256,"ora":257,"son":258,"ga":259,"▁cas":260,"▁tu":261,"lar":262,"pe":263,"▁son":264,"▁sin":265,"▁ar":266,"ún":267,"les":268,"ces":269,"...":270,"tas":271,"ambién":272,"▁pas":273,"ones":274,"▁ver":275,"▁lle":276,"▁esta":277,"um":278,"entes":279,"rim":280,"és":281,"▁J":282,"▁¿":283,"▁qui":284,"▁muy":285,"▁person":286,"encia":287,"baj":288,"li":289,"das":290,"▁Es":291,"aba":292,"uer":293,"▁20":294,"▁nos":295,"▁mis":296,"▁ya":297,"▁V":298,"▁ob":299,"ac":300,"▁Y":301,"ver":302,"emos":303,"ros":304,"uev":305,"▁pres":306,"las":307,"▁sobre":308,"▁mo":309,"▁todo":310,"fer":311,"ort":312,"▁emp":313,"adas":314,"aliz":315,"min":316,"ust":317,"eces":318,"▁cre":319,"▁sol":320,"oy":321,"▁Un":322,"ario":323,"▁inter":324,"▁ci":325,"za":326,"▁dis":327,"▁también":328,"▁entre":329,"gui":330,"je":331,"▁nuest":332,"▁mej":333,"lic":334,"▁fue":335,"▁r":336,"cio":337,"endo":338,"▁trabaj":339,"▁O":340,"lan":341,"▁pos":342,"tros":343,"ech":344,"▁está":345,"enta":346,"ens":347,"▁sal":348,"▁tan":349,"ido":350,"mb":351,"▁hay":352,"▁deb":353,"▁co":354,"entos":355,"▁medi":356,"jo":357,"dr":358,"duc":359,"▁prim":360,"ana":361,"cias":362,"mas":363,"▁vi":364,"▁or":365,"me":366,"cl":367,"▁hacer":368,"▁inf":369,"uen":370,"almente":371,"▁puede":372,"able":373,"pañ":374,"ías":375,"ina":376,"▁años":377,"▁nuev":378,"▁du":379,"no":380,"▁cuando":381,"pon":382,"fic":383,"car":384,"▁qu":385,"▁Se":386,"▁fin":387,"ador":388,"▁pe":389,"▁ni":390,"▁lu":391,"▁car":392,"▁gran":393,"▁cor":394,"ren":395,"iemp":396,"▁ti":397,"ami":398,"par":399,"▁No":400,"tal":401,"gra":402,"ín":403,"▁tiene":404,"ig":405,"cas":406,"asta":407,"ño":408,"orma":409,"▁Con":410,"▁parti":411,"ve":412,"ub":413,"▁ab":414,"▁mejor":415,"tivo":416,"▁desde":417,"miento":418,"▁cos":419,"ur":420,"▁deci":421,"fici":422,"▁todos":423,"▁men":424,"▁tiemp":425,"▁op":426,"▁neces":427,"na":428,"arios":429,"▁In":430,"▁prop":431,"udi":432,"im":433,"▁é":434,"ano":435,"ble":436,"▁mar":437,"alidad":438,"▁porque":439,"ís":440,"▁us":441,"▁bien":442,"\",":443,"▁esc":444,"▁exp":445,"til":446,"▁dos":447,"▁algun":448,"rar":449,"▁han":450,"ven":451,"gan":452,"▁3":453,"ista":454,"vo":455,"idades":456,"▁Los":457,"▁Por":458,"\".":459,"▁don":460,"ud":461,"cial":462,"▁De":463,"más":464,"▁Si":465,"▁vez":466,"▁cual":467,"cip":468,"▁tiempo":469,"▁hasta":470,"rec":471,"▁buen":472,"ían":473,"antes":474,"▁do":475,"▁may":476,"pu":477,"ios":478,"▁mun":479,"tura":480,"fec":481,"gos":482,"▁na":483,"▁sab":484,"▁Al":485,"▁cons":486,"▁así":487,"eron":488,"gún":489,"▁au":490,"▁cono":491,"▁donde":492,"▁parte":493,"▁ah":494,"▁cam":495,"ino":496,"aron":497,"pos":498,"▁cada":499,"tado":500,"▁can":501,"emp":502,"amiento":503,"can":504,"00":505,"▁ter":506,"▁201":507,"lti":508,"jer":509,"▁gen":510,"ba":511,"▁ll":512,"cios":513,"pec":514,"▁col":515,"▁año":516,"cional":517,"▁am":518,"so":519,"▁fun":520,"▁día":521,"cos":522,"▁hace":523,"▁Com":524,"adores":525,"esti":526,"▁uno":527,"ícu":528,"eb":529,"man":530,"gen":531,"▁forma":532,"por":533,"teri":534,"rante":535,"ion":536,"ay":537,"em":538,"▁ve":539,"▁vida":540,"uel":541,"tica":542,"zo":543,"▁mucho":544,"▁ay":545,"▁produc":546,"▁Re":547,"▁mil":548,"▁equi":549,"tiva":550,"cil":551,"▁cont":552,"▁ú":553,"demás":554,"▁llev":555,"▁gra":556,"▁eso":557,"▁era":558,"▁personas":559,"▁da":560,"sión":561,"ja":562,"▁reg":563,"▁pol":564,"▁fu":565,"uego":566,"ños":567,"▁fuer":568,"▁import":569,"nos":570,"▁mom":571,"▁inform":572,"unto":573,"og":574,"▁ad":575,"icos":576,"▁mismo":577,"▁cambi":578,"arse":579,"▁tener":580,"▁incl":581,"▁ju":582,"bier":583,"▁u":584,"ómo":585,"fi":586,"▁rec":587,"▁están":588,"quier":589,"▁ne":590,").":591,"▁ch":592,"▁li":593,"eros":594,"idos":595,"▁mayor":596,"ará":597,"▁algo":598,"▁cer":599,"ste":600,"xi":601,"rá":602,"▁segu":603,"icas":604,"▁contra":605,"cur":606,"ton":607,"cción":608,"▁realiz":609,"▁lugar":610,"empre":611,"▁19":612,"▁país":613,"pués":614,"▁cal":615,"tras":616,"▁hech":617,"▁siempre":618,"aje":619,"▁espe":620,"unque":621,"cen":622,"▁solo":623,"▁tran":624,"rol":625,"▁otros":626,"▁podr":627,"▁4":628,"▁qué":629,"▁trabajo":630,"▁ese":631,"ible":632,"▁últi":633,"▁empres":634,"▁bas":635,"cha":636,"▁ra":637,"▁tanto":638,"et":639,"▁sig":640,"▁dej":641,"▁encon":642,"fes":643,"ólo":644,"▁sent":645,"▁Pero":646,"▁5":647,"▁mundo":648,"jos":649,"▁difer":650,"ona":651,"tivos":652,"▁hi":653,"ér":654,"▁reci":655,"),":656,"▁esto":657,"▁poco":658,"udad":659,"▁cuenta":660,"▁pla":661,"bl":662,"ea":663,"▁-":664,"cho":665,"▁gener":666,"argo":667,"▁Me":668,"▁mes":669,"▁menos":670,"▁Las":671,"▁momento":672,"puest":673,"▁actu":674,"▁inst":675,"▁ro":676,"itu":677,"▁otro":678,"▁durante":679,"tó":680,"yec":681,"▁W":682,"incip":683,"▁lib":684,"▁comun":685,"iden":686,"▁An":687,"tir":688,"▁plan":689,"▁va":690,"pi":691,"tación":692,"▁había":693,"▁les":694,"▁yo":695,"▁ven":696,"▁pueden":697,"arrol":698,"iones":699,"trar":700,"ena":701,"▁princip":702,"▁pi":703,"▁vol":704,"amil":705,"▁estos":706,"▁quien":707,"▁servi":708,"ral":709,"▁pon":710,"▁llam":711,"▁gust":712,"inu":713,"▁tom":714,"▁val":715,"▁pes":716,"ing":717,"teg":718,"▁acu":719,"zar":720,"▁sea":721,"▁den":722,"▁«":723,"▁sido":724,"aria":725,"ombre":726,"▁estar":727,"▁dist":728,"▁const":729,"▁Q":730,"rib":731,"▁Mar":732,"▁caso":733,"▁direc":734,"aban":735,"av":736,"▁K":737,"éc":738,"▁her":739,"iendo":740,"▁hist":741,"▁resul":742,"▁toda":743,"▁consi":744,"ed":745,"anos":746,"▁ahora":747,"ña":748,"▁emb":749,"▁proble":750,"▁cab":751,"▁Des":752,"▁baj":753,"▁posi":754,"uy":755,"▁of":756,"▁vis":757,"▁hecho":758,"uso":759,"▁rep":760,"cep":761,"ece":762,"quí":763,"▁decir":764,"▁form":765,"▁bus":766,"cre":767,"▁después":768,"▁desarrol":769,"▁fal":770,"▁antes":771,"cado":772,"sa":773,"ord":774,"▁Ch":775,"▁he":776,"vis":777,"▁mal":778,"▁Para":779,"▁tienen":780,"▁dest":781,"▁famil":782,"▁ciudad":783,"cuent":784,"▁¡":785,"▁manera":786,"fica":787,"va":788,"▁estudi":789,"▁esa":790,"▁Lo":791,"▁permi":792,"▁San":793,"tiliz":794,"omb":795,"▁exper":796,"tamente":797,"oria":798,"▁todas":799,"▁poder":800,"▁trans":801,"▁ri":802,"▁cómo":803,"▁ag":804,"▁tras":805,"cido":806,"▁otra":807,"ceso":808,"▁nuestro":809,"tico":810,"▁indi":811,"▁mujer":812,"?.":813,"▁proyec":814,"▁nada":815,"entar":816,"bil":817,"▁dar":818,"▁días":819,"tan":820,"tores":821,"▁tipo":822,"ine":823,"▁cent":824,"▁encuent":825,"▁primer":826,"▁Cu":827,"▁mer":828,"▁cosas":829,"▁tar":830,"ús":831,"▁ellos":832,"cimiento":833,"▁def":834,"dido":835,"▁sólo":836,"▁nuestra":837,"▁él":838,"▁á":839,"▁quier":840,"▁comple":841,"tados":842,"▁nuevo":843,"guir":844,"▁aunque":845,"cal":846,"▁utiliz":847,"▁ide":848,"▁ir":849,"ene":850,"▁Ar":851,"▁rela":852,"pen":853,"▁primera":854,"▁gan":855,"▁polí":856,"▁casa":857,"▁pens":858,"ración":859,"▁super":860,"▁muchos":861,"óm":862,"▁cualquier":863,"ciales":864,"▁peque":865,"ias":866,"che":867,"▁mas":868,"obier":869,"▁tres":870,"▁otras":871,"rado":872,"ismo":873,"ancia":874,"▁eje":875,"▁mon":876,"▁fi":877,"▁inv":878,"ío":879,"uro":880,"▁sí":881,"istas":882,"ería":883,"dades":884,"▁6":885,"ern":886,"▁situ":887,"olu":888,"▁estas":889,"▁importante":890,"▁Le":891,"▁profes":892,"▁equipo":893,"rad":894,"quel":895,"▁unos":896,"ita":897,"paña":898,"▁cier":899,"▁obje":900,"aciones":901,"▁pel":902,"gas":903,"entras":904,"▁conf":905,"terior":906,"van":907,"▁ejemp":908,"▁segun":909,"▁qued":910,"vil":911,"▁apar":912,"▁pú":913,"▁hum":914,"arias":915,"▁hor":916,"gua":917,"▁To":918,"lación":919,"▁entr":920,"▁tal":921,"ific":922,"▁sino":923,"▁información":924,"▁Su":925,"▁siste":926,"▁exist":927,"▁organ":928,"▁200":929,"▁viv":930,"▁pri":931,"▁estado":932,"▁activ":933,"▁Una":934,"ivel":935,"▁As":936,"▁hoy":937,"otros":938,"▁,":939,"▁algunos":940,"▁estaba":941,"▁gru":942,"▁lleg":943,"▁señ":944,"obierno":945,"▁ref":946,"▁además":947,"erg":948,"sta":949,"▁pal":950,"▁capa":951,"eo":952,"leg":953,"▁econ":954,"sos":955,"▁fo":956,"▁debe":957,"iver":958,"▁muchas":959,"ciendo":960,"▁'":961,"ció":962,"vés":963,"▁aquel":964,"▁nivel":965,"▁aquí":966,"íst":967,"ola":968,"▁jug":969,"▁gente":970,"tener":971,"▁cri":972,"▁mill":973,"tícu":974,"▁veces":975,"▁Sin":976,"▁elec":977,"▁ella":978,"adre":979,"idas":980,"▁dere":981,"▁escri":982,"ác":983,"lica":984,"▁pasado":985,"demos":986,"▁esper":987,"▁temp":988,"▁w":989,"▁pub":990,"▁sigui":991,"▁embargo":992,"ridad":993,"▁través":994,"▁ante":995,"at":996,"▁ún":997,"▁cli":998,"▁conse":999,"tivas":1000,"cel":1001,"bo":1002,"▁cul":1003,"▁af":1004,"embre":1005,"▁Este":1006,"▁nin":1007,"▁7":1008,"▁respon":1009,"cidad":1010,"▁fr":1011,"▁z":1012,"dera":1013,"vir":1014,"dió":1015,"dia":1016,"tonces":1017,"ital":1018,"▁ayud":1019,"▁pregun":1020,"▁esp":1021,"▁apro":1022,"erdo":1023,"▁dijo":1024,"▁ba":1025,"▁bo":1026,"▁ev":1027,"omo":1028,"abil":1029,"▁pl":1030,"▁ejemplo":1031,"▁progra":1032,"gres":1033,"▁cap":1034,"▁sec":1035,"▁compar":1036,"unca":1037,"▁medio":1038,"ares":1039,"untos":1040,"iencia":1041,"mana":1042,"▁tus":1043,"▁efec":1044,"zas":1045,"tención":1046,"▁historia":1047,"▁Además":1048,"▁ade":1049,"▁interes":1050,"cono":1051,"▁será":1052,"lec":1053,"olog":1054,"erte":1055,"▁log":1056,"▁especi":1057,"▁ofre":1058,"▁recu":1059,"▁final":1060,"▁vo":1061,"óg":1062,"eza":1063,"▁os":1064,"edad":1065,"▁10":1066,"▁8":1067,"▁llegar":1068,"ticas":1069,"ap":1070,"▁haber":1071,"▁posible":1072,"▁millones":1073,"▁mientras":1074,"bir":1075,"ables":1076,"▁persona":1077,"ición":1078,"▁organiz":1079,"▁ami":1080,"ut":1081,"▁Mi":1082,"▁Car":1083,"▁cara":1084,"ge":1085,"ome":1086,"▁cl":1087,"▁puedes":1088,"▁compañ":1089,"▁funcion":1090,"gual":1091,"▁Par":1092,"▁Esta":1093,"ór":1094,"ama":1095,"rir":1096,"▁pan":1097,"úm":1098,"▁dise":1099,"▁sistema":1100,"eno":1101,"tis":1102,"segu":1103,"▁ins":1104,"▁sue":1105,"▁evi":1106,"▁present":1107,"▁din":1108,"▁hacia":1109,"▁ele":1110,"uda":1111,"▁Pro":1112,"lig":1113,"▁int":1114,"▁dec":1115,"tante":1116,"lor":1117,"▁comer":1118,"▁pues":1119,"▁inici":1120,"má":1121,"▁ello":1122,"▁encontrar":1123,"▁niños":1124,"▁quer":1125,"ment":1126,"▁cump":1127,"▁mie":1128,"▁datos":1129,"ortun":1130,"ág":1131,"tido":1132,"▁san":1133,"▁nuestros":1134,"vid":1135,"▁termin":1136,"000":1137,"▁pod":1138,"ál":1139,"ior":1140,"▁luego":1141,"anza":1142,"inas":1143,"▁nueva":1144,"ió":1145,"▁nosotros":1146,"▁También":1147,"▁misma":1148,"mar":1149,"▁bar":1150,"▁ban":1151,"▁tenemos":1152,"erv":1153,"▁dentro":1154,"▁empresa":1155,"entas":1156,"ala":1157,"tidad":1158,"▁clar":1159,"▁diferentes":1160,"▁fá":1161,"▁edi":1162,"▁Como":1163,"▁fueron":1164,"mientos":1165,"ual":1166,"▁aplic":1167,"ró":1168,"▁autor":1169,"cul":1170,"▁buena":1171,"gn":1172,"▁sub":1173,"zón":1174,"bido":1175,"▁Co":1176,"▁calidad":1177,"ecu":1178,"▁Ma":1179,"▁según":1180,"▁hemos":1181,"ctu":1182,"▁jue":1183,"▁casi":1184,"▁Na":1185,"ril":1186,"▁nunca":1187,"ajes":1188,"ard":1189,"▁espa":1190,"▁núm":1191,"▁España":1192,"▁mé":1193,"▁ima":1194,"▁puest":1195,"cular":1196,"▁vuel":1197,"▁públ":1198,"aría":1199,"▁ho":1200,"ticos":1201,"▁9":1202,"▁tengo":1203,"▁juego":1204,"▁punto":1205,"▁ru":1206,"▁apren":1207,"▁proceso":1208,"bilidad":1209,"▁incluso":1210,"▁investi":1211,"▁usu":1212,"idente":1213,"▁aún":1214,"▁Yo":1215,"▁all":1216,"▁Ro":1217,"▁sa":1218,"▁Cuando":1219,"avor":1220,"▁enf":1221,"▁contro":1222,"pecto":1223,"▁recom":1224,"ric":1225,"▁artícu":1226,"▁pare":1227,"▁web":1228,"▁sen":1229,"▁proyecto":1230,"tad":1231,"▁continu":1232,"▁cuer":1233,"atro":1234,"▁grandes":1235,"▁situación":1236,"écn":1237,"ber":1238,"▁lado":1239,"▁estable":1240,"tural":1241,"▁mejores":1242,"▁conver":1243,"▁cr":1244,"▁repres":1245,"cri":1246,"▁dif":1247,"▁meses":1248,"▁ce":1249,"▁profesion":1250,"▁saber":1251,"▁apoy":1252,"▁parece":1253,"▁igual":1254,"duci":1255,"▁So":1256,"aran":1257,"ura":1258,"▁anti":1259,"▁distin":1260,"▁ofici":1261,"▁clas":1262,"▁gracias":1263,"▁fuera":1264,"uir":1265,"▁productos":1266,"ono":1267,"▁favor":1268,"tel":1269,"▁mode":1270,"▁agua":1271,"▁cuan":1272,"dida":1273,"cionales":1274,"▁tec":1275,"▁Pue":1276,"and":1277,"rig":1278,"▁tendr":1279,"dir":1280,"▁comen":1281,"áp":1282,"▁familia":1283,"izo":1284,"▁uso":1285,"dio":1286,"▁nego":1287,"bol":1288,"▁X":1289,"▁gu":1290,"chos":1291,"▁diver":1292,"▁grupo":1293,"▁salud":1294,"▁palab":1295,"▁acuerdo":1296,"▁tenía":1297,"encias":1298,"▁Así":1299,"▁económ":1300,"▁algunas":1301,"ito":1302,"▁nombre":1303,"▁Po":1304,"dor":1305,"iene":1306,"▁entonces":1307,"▁pró":1308,"dan":1309,"ué":1310,"▁aum":1311,"▁disf":1312,"oso":1313,"▁Z":1314,"▁lín":1315,"tando":1316,"▁semana":1317,"▁prob":1318,"▁fa":1319,"▁mujeres":1320,"▁podemos":1321,"isto":1322,"siones":1323,"▁problemas":1324,"itar":1325,"▁simp":1326,"▁recono":1327,"▁má":1328,"▁horas":1329,"log":1330,"▁general":1331,"▁asegu":1332,"arlo":1333,"minist":1334,"▁podría":1335,"▁espec":1336,"ología":1337,"ich":1338,"▁min":1339,"▁verdad":1340,"ya":1341,"▁seguridad":1342,"eras":1343,"icia":1344,"orn":1345,"▁descu":1346,"▁ley":1347,"▁técn":1348,"▁Ha":1349,"▁k":1350,"▁alguna":1351,"▁problema":1352,"▁emple":1353,"▁empez":1354,"puesto":1355,"▁mercado":1356,"▁pu":1357,"tific":1358,"▁cin":1359,"ivers":1360,"▁seguir":1361,"pul":1362,"gue":1363,"▁social":1364,"▁españ":1365,"▁siti":1366,"▁cuest":1367,"▁hombre":1368,"▁sign":1369,"▁valor":1370,"▁desarrollo":1371,"▁empresas":1372,"▁gas":1373,"eta":1374,"end":1375,"ñas":1376,"▁cambio":1377,"▁condi":1378,"inos":1379,"▁dice":1380,"▁estu":1381,"abor":1382,"▁ust":1383,"isión":1384,"▁bajo":1385,"▁dinero":1386,"▁public":1387,"orte":1388,"▁Te":1389,"▁número":1390,"▁relación":1391,"▁15":1392,"▁servicio":1393,"cin":1394,"▁Dios":1395,"▁tema":1396,"▁dispon":1397,"▁tienes":1398,"▁caus":1399,"▁Pa":1400,"▁orig":1401,"jas":1402,"▁experiencia":1403,"▁creo":1404,"▁prác":1405,"▁comunic":1406,"▁personal":1407,"▁oportun":1408,"▁servicios":1409,"▁tecn":1410,"íamos":1411,"abilidad":1412,"▁inver":1413,"▁fácil":1414,"uela":1415,"▁ráp":1416,"▁mayoría":1417,"▁hizo":1418,"▁lab":1419,"▁algún":1420,"irm":1421,"cía":1422,"▁acer":1423,"▁conocer":1424,"▁minu":1425,"▁poner":1426,"▁escu":1427,"▁pág":1428,"▁próxi":1429,"▁confi":1430,"tom":1431,"▁estamos":1432,"deo":1433,"▁rev":1434,"▁trad":1435,"ck":1436,"form":1437,"▁disfru":1438,"he":1439,"tá":1440,"▁último":1441,"▁estoy":1442,"▁unas":1443,"▁afec":1444,"ecer":1445,"torio":1446,"▁extra":1447,"▁Di":1448,"▁hora":1449,"▁amp":1450,"▁especial":1451,"vía":1452,"éis":1453,"▁siendo":1454,"▁mí":1455,"▁Esto":1456,"▁18":1457,"▁realidad":1458,"▁coment":1459,"▁Sal":1460,"▁Ju":1461,"tada":1462,"gación":1463,"▁Ah":1464,"▁trata":1465,"20":1466,"oles":1467,"▁varios":1468,"▁Euro":1469,"▁mos":1470,"▁pie":1471,"erra":1472,"▁pelícu":1473,"▁partido":1474,"ría":1475,"ológ":1476,"▁just":1477,"▁desa":1478,"dencia":1479,"ental":1480,"▁alcan":1481,"lado":1482,"▁orden":1483,"▁cuerpo":1484,"ler":1485,"▁lí":1486,"▁Estados":1487,"▁cur":1488,"rió":1489,"▁atención":1490,".000":1491,"ensa":1492,"▁cuatro":1493,"uestra":1494,"▁países":1495,"graf":1496,"▁particip":1497,"▁recur":1498,"ifica":1499,"▁realizar":1500,"dente":1501,"▁van":1502,"có":1503,"▁deber":1504,"▁leg":1505,"ándo":1506,"rist":1507,"▁explic":1508,"▁conten":1509,"▁compr":1510,"▁gobierno":1511,"ombres":1512,"pre":1513,"▁norm":1514,"▁Ten":1515,"▁sac":1516,"ger":1517,"▁ayuda":1518,"▁respons":1519,"porte":1520,"guien":1521,"adri":1522,"zos":1523,"fico":1524,"▁anterior":1525,"▁ocas":1526,"▁Inter":1527,"amento":1528,"▁perfec":1529,"▁largo":1530,"leb":1531,"▁cir":1532,"ám":1533,"▁ocur":1534,"▁paso":1535,"▁Cas":1536,"▁defin":1537,"▁bastante":1538,"▁Bar":1539,"termin":1540,"dose":1541,"▁dese":1542,"▁idea":1543,"▁tempor":1544,"iso":1545,"▁amor":1546,"▁esos":1547,"▁casos":1548,"▁bene":1549,"▁Ex":1550,"rea":1551,"tera":1552,"▁Per":1553,"mento":1554,"itas":1555,"tac":1556,"▁tí":1557,"▁Mu":1558,"▁prepar":1559,"▁expres":1560,"▁soci":1561,"▁materi":1562,"▁dejar":1563,"orp":1564,"▁pap":1565,"ex":1566,"und":1567,"▁compe":1568,"▁prue":1569,"Qué":1570,"icip":1571,"▁hablar":1572,"▁falta":1573,"▁pasar":1574,"val":1575,"zó":1576,"▁enfer":1577,"ial":1578,"▁Hay":1579,"▁mús":1580,"▁llevar":1581,"ocu":1582,"▁futu":1583,"aja":1584,"▁Mé":1585,"▁mens":1586,"▁libro":1587,"▁siguiente":1588,"▁constru":1589,"toria":1590,"▁ol":1591,"▁atra":1592,"tic":1593,"fe":1594,"▁junto":1595,"ria":1596,"▁zona":1597,"adie":1598,"▁difí":1599,"▁puntos":1600,"adora":1601,"tió":1602,"▁inc":1603,"El":1604,"anci":1605,"▁sentido":1606,"▁interna":1607,"▁ví":1608,"tón":1609,"cter":1610,"▁foto":1611,"cis":1612,"▁eleg":1613,"▁ayudar":1614,"▁Ca":1615,"ducir":1616,"▁Val":1617,"▁detal":1618,"▁noche":1619,"tur":1620,"▁Fran":1621,"▁on":1622,"▁hu":1623,"▁suf":1624,"reo":1625,"▁invi":1626,"▁alim":1627,"▁claro":1628,"tec":1629,"▁ejer":1630,"▁frente":1631,"be":1632,"▁benefici":1633,"ibles":1634,"▁precio":1635,"▁señal":1636,"▁et":1637,"▁incluy":1638,"▁pueb":1639,"▁fund":1640,"▁solu":1641,"▁serie":1642,"▁miemb":1643,"▁segundo":1644,"▁sociales":1645,"▁objetivo":1646,"▁celeb":1647,"▁cuanto":1648,"▁encontr":1649,"▁alguien":1650,"ves":1651,"vin":1652,"▁total":1653,"▁caracter":1654,"fa":1655,"▁espacio":1656,"oma":1657,"▁público":1658,"▁programa":1659,"▁haya":1660,"▁instal":1661,"▁cierto":1662,"gado":1663,"▁ahí":1664,"▁sex":1665,"mil":1666,"▁artículo":1667,"zado":1668,"▁centro":1669,"▁real":1670,"xico":1671,"▁producto":1672,"▁energ":1673,"ne":1674,"▁Desde":1675,"▁determin":1676,"▁Man":1677,"▁simple":1678,"▁refer":1679,"▁mano":1680,"iste":1681,"▁enten":1682,"▁pen":1683,"▁ej":1684,"dial":1685,"▁línea":1686,"▁...":1687,"tud":1688,"▁haciendo":1689,"▁natural":1690,"inación":1691,"char":1692,"diendo":1693,"▁12":1694,"▁encan":1695,"▁mucha":1696,"cionar":1697,"▁puer":1698,"▁política":1699,"ok":1700,"▁anim":1701,"▁ambi":1702,"▁dedi":1703,"tamiento":1704,"ron":1705,"▁respuest":1706,"adrid":1707,"▁sería":1708,"▁presidente":1709,"uros":1710,"rera":1711,"▁anun":1712,"olo":1713,"▁puesto":1714,"▁vent":1715,"▁hacen":1716,"▁asi":1717,"chas":1718,"▁acab":1719,"▁amb":1720,"uesta":1721,"▁necesario":1722,"▁nuevos":1723,"▁dirig":1724,"sas":1725,"omos":1726,"▁modo":1727,"▁nuevas":1728,"▁gusta":1729,"adres":1730,"▁tri":1731,"▁regist":1732,"alización":1733,"▁Am":1734,"ducación":1735,"▁quiere":1736,"▁esti":1737,"▁cosa":1738,"▁Buen":1739,"▁iden":1740,"▁respecto":1741,"▁dispos":1742,"▁tomar":1743,"▁domin":1744,"pas":1745,"▁Ya":1746,"▁destac":1747,"▁resultados":1748,"▁avan":1749,"▁sos":1750,"La":1751,"▁minutos":1752,"echa":1753,"▁fel":1754,"gent":1755,"▁Unidos":1756,"olución":1757,"▁bueno":1758,"▁sur":1759,"▁liber":1760,"▁trabajar":1761,"▁sitio":1762,"!!":1763,"▁pueda":1764,"▁ningún":1765,"▁usted":1766,"▁30":1767,"▁primero":1768,"▁conoci":1769,"▁volver":1770,"▁vari":1771,"▁encuentra":1772,"▁tele":1773,"▁partir":1774,"▁labor":1775,"▁gesti":1776,"illa":1777,"rio":1778,"ES":1779,"net":1780,"lu":1781,"visión":1782,"▁hijos":1783,"▁comprar":1784,"▁etc":1785,"▁cantidad":1786,"▁juegos":1787,"▁habl":1788,"▁últimos":1789,"▁Estado":1790,"dez":1791,"amientos":1792,"▁Ahora":1793,"turas":1794,"▁reun":1795,"▁lan":1796,"▁México":1797,"▁Madrid":1798,"yo":1799,"▁permite":1800,"▁Mo":1801,"▁loc":1802,"▁preocu":1803,"▁obs":1804,"▁ningun":1805,"gi":1806,"▁tarde":1807,"▁quienes":1808,"gon":1809,"▁mir":1810,"stas":1811,"▁solici":1812,"alizar":1813,"▁camino":1814,"▁sé":1815,"usión":1816,"via":1817,"▁sector":1818,"▁varias":1819,"pti":1820,"eas":1821,"▁puedo":1822,"▁tuvo":1823,"▁realmente":1824,"▁auto":1825,"ice":1826,"▁go":1827,"ficiente":1828,"ho":1829,"▁nadie":1830,"▁vamos":1831,"▁consider":1832,"var":1833,"▁base":1834,"▁nuestras":1835,"▁control":1836,"icamente":1837,"▁seguro":1838,"▁Gobierno":1839,"men":1840,"diente":1841,"bajo":1842,"▁desp":1843,"ísi":1844,"▁estra":1845,"▁ale":1846,"▁pesar":1847,"omía":1848,"▁deben":1849,"▁fil":1850,"▁inte":1851,"▁.":1852,"▁gol":1853,"gles":1854,"▁demás":1855,"▁usuarios":1856,"▁Qui":1857,"▁mantener":1858,"▁docu":1859,"▁beb":1860,"▁Que":1861,"▁–":1862,"▁opin":1863,"▁visto":1864,"▁viol":1865,"dust":1866,"▁depen":1867,"▁perio":1868,"ER":1869,"tien":1870,"▁Gu":1871,"ñana":1872,"▁contac":1873,"▁difícil":1874,"hi":1875,"lares":1876,"▁Mun":1877,"ris":1878,"▁clientes":1879,"reg":1880,"▁único":1881,"▁evitar":1882,"▁actividades":1883,"ban":1884,"▁financi":1885,"▁sigue":1886,"▁crear":1887,"▁dicho":1888,"bió":1889,"lección":1890,"▁dig":1891,"▁ries":1892,"▁tor":1893,"No":1894,"dar":1895,"▁conven":1896,"▁conseguir":1897,"▁segunda":1898,"▁sorp":1899,"osa":1900,"▁emo":1901,"mon":1902,"▁il":1903,"bas":1904,"ización":1905,"▁significa":1906,"▁debido":1907,"▁condiciones":1908,"▁Gra":1909,"▁futuro":1910,"▁movi":1911,"▁esf":1912,"OS":1913,"▁palabras":1914,"▁incre":1915,"▁ren":1916,"▁ellas":1917,"▁acom":1918,"▁color":1919,"ula":1920,"▁Aunque":1921,"▁fís":1922,"iado":1923,"▁garan":1924,"▁—":1925,"▁mani":1926,"tbol":1927,"▁Jos":1928,"▁Mon":1929,"▁er":1930,"ampo":1931,"▁pin":1932,"▁esas":1933,"▁demas":1934,"▁jo":1935,"▁Nacional":1936,"▁precios":1937,"trás":1938,"▁obra":1939,"▁cinco":1940,"▁elem":1941,"▁ingres":1942,"ivo":1943,"▁Á":1944,"▁sencil":1945,"all":1946,"▁eran":1947,"▁cerca":1948,"ha":1949,"▁inde":1950,"stitu":1951,"▁sociedad":1952,"▁imagen":1953,"▁vir":1954,"gel":1955,"▁médi":1956,"▁fac":1957,"▁propio":1958,"▁Pre":1959,"▁máxi":1960,"▁madre":1961,"▁ense":1962,"cent":1963,"xto":1964,"▁acep":1965,"▁at":1966,"ire":1967,"▁represent":1968,"▁relacion":1969,"▁duda":1970,"cina":1971,"▁papel":1972,"-1":1973,"▁Go":1974,"▁lec":1975,"vent":1976,"▁ases":1977,"▁envi":1978,"▁nacional":1979,"jar":1980,"▁usar":1981,"▁prof":1982,"▁principal":1983,"▁tenido":1984,"▁marca":1985,"».":1986,"▁derecho":1987,"▁municip":1988,"▁jun":1989,"bles":1990,"▁integ":1991,"alu":1992,"▁página":1993,"ár":1994,"▁hombres":1995,"óvil":1996,"▁institu":1997,"▁Col":1998,"oría":1999,"▁arti":2000,"▁soy":2001,"inar":2002,"▁diseño":2003,"▁vista":2004,"▁conj":2005,"▁capacidad":2006,"▁hijo":2007,"▁todavía":2008,"▁euros":2009,"adamente":2010,"taciones":2011,"quiera":2012,"▁ado":2013,"▁pobl":2014,"rados":2015,"▁éxi":2016,"▁asist":2017,"respon":2018,"▁cla":2019,"▁edad":2020,"▁fon":2021,"▁resultado":2022,"▁cuar":2023,"uido":2024,"▁allí":2025,"rami":2026,"▁entren":2027,"peración":2028,"▁mañana":2029,"▁quiero":2030,"▁amigos":2031,"gre":2032,"mentos":2033,"▁Du":2034,"▁contar":2035,"lante":2036,"erio":2037,"▁actividad":2038,"▁alta":2039,"quil":2040,"▁pron":2041,"imo":2042,"ísticas":2043,"cti":2044,"▁herrami":2045,"▁fe":2046,"ciente":2047,"▁blan":2048,"▁ocu":2049,"▁adecu":2050,"ques":2051,"▁luz":2052,"▁estudio":2053,"▁impres":2054,"▁administ":2055,"0,":2056,"▁pasa":2057,"▁encar":2058,"▁padre":2059,"▁grande":2060,"rido":2061,"▁hacerlo":2062,"▁reco":2063,"▁medios":2064,"iversidad":2065,"▁proce":2066,"tin":2067,"▁última":2068,"▁salir":2069,"AR":2070,"eric":2071,"▁11":2072,"oc":2073,"▁mor":2074,"▁dado":2075,"▁película":2076,"▁oportunidad":2077,"sic":2078,"tulo":2079,"▁enc":2080,"▁mejorar":2081,"▁propia":2082,"mir":2083,"▁has":2084,"tario":2085,"▁refle":2086,"▁resto":2087,"▁opción":2088,"▁buscar":2089,"ribu":2090,"▁proces":2091,"▁esté":2092,"▁Li":2093,"▁rom":2094,"▁aplicación":2095,"dedor":2096,"una":2097,"▁actual":2098,"▁ofrece":2099,"dap":2100,"▁acompañ":2101,"▁modelo":2102,"▁busc":2103,"▁eli":2104,"remos":2105,"▁Pe":2106,"▁pueblo":2107,"▁promo":2108,"▁necesit":2109,"▁Res":2110,"▁record":2111,"▁medida":2112,"itos":2113,"▁consul":2114,"▁cuid":2115,"▁Según":2116,"▁jugar":2117,"len":2118,"anas":2119,"▁suce":2120,"▁199":2121,"▁manten":2122,"▁origin":2123,"▁em":2124,"ror":2125,"▁famili":2126,"▁cru":2127,"alo":2128,"▁cabeza":2129,"vech":2130,"▁música":2131,"▁DE":2132,"uerra":2133,"ecen":2134,"▁Ser":2135,"▁vas":2136,"▁cabo":2137,"rada":2138,"▁rad":2139,"▁dio":2140,"▁ejerci":2141,"▁blog":2142,"▁Juan":2143,"▁Can":2144,"▁importantes":2145,"dero":2146,"▁contr":2147,"▁padres":2148,"▁apoyo":2149,"tero":2150,"▁leer":2151,"▁producción":2152,"imiento":2153,"th":2154,"▁red":2155,"▁ata":2156,"AS":2157,"▁temporada":2158,"▁tú":2159,"ampoco":2160,"▁enfr":2161,"tivamente":2162,"gl":2163,"EN":2164,"ile":2165,"▁poten":2166,"▁muerte":2167,"▁voy":2168,"▁adap":2169,"▁derechos":2170,"▁Ale":2171,"▁14":2172,"▁correspon":2173,"CI":2174,"áb":2175,"▁correc":2176,"▁Ci":2177,"ciar":2178,"tán":2179,"▁25":2180,"▁particular":2181,"▁Bo":2182,"▁manos":2183,"▁comb":2184,"▁pudi":2185,"▁Cor":2186,"trón":2187,"rin":2188,"imos":2189,"▁descub":2190,"genes":2191,"▁hici":2192,"▁alto":2193,"taron":2194,"▁recursos":2195,"ere":2196,"▁indust":2197,"▁sean":2198,"▁éxito":2199,"▁limp":2200,"▁conte":2201,"▁redes":2202,"▁fuerte":2203,"enas":2204,"dimiento":2205,"▁plata":2206,"▁razón":2207,"rero":2208,"▁proyectos":2209,"▁investigación":2210,"▁Tra":2211,"▁respuesta":2212,"▁ub":2213,"▁tel":2214,"▁recomend":2215,"▁lograr":2216,"▁inten":2217,"▁comien":2218,"fo":2219,"tiene":2220,"▁perman":2221,"▁Jo":2222,"▁medidas":2223,"▁enseñ":2224,"▁16":2225,"venes":2226,"▁novi":2227,"▁fran":2228,"line":2229,"▁Son":2230,"tri":2231,"terna":2232,"▁pensar":2233,"▁enferme":2234,"sis":2235,"▁primeros":2236,"▁alum":2237,"▁abs":2238,"bar":2239,"▁100":2240,"ate":2241,"»,":2242,"manas":2243,"qué":2244,"▁conci":2245,"▁Pres":2246,"▁noti":2247,"▁cuales":2248,"▁bol":2249,"blic":2250,"▁ur":2251,"▁acceso":2252,"▁lleva":2253,"▁veh":2254,"▁Min":2255,"▁población":2256,"▁Gen":2257,"▁propor":2258,"▁compañía":2259,"▁supon":2260,"óvenes":2261,"▁Or":2262,"▁mediante":2263,"▁respe":2264,"▁produ":2265,"▁viene":2266,"▁propie":2267,"▁carrera":2268,"▁abier":2269,"▁profesional":2270,"▁necesidad":2271,"▁sabe":2272,"ífic":2273,"▁for":2274,"▁Rec":2275,"▁pequeño":2276,"▁Cent":2277,"▁Después":2278,"▁estilo":2279,"▁esfuer":2280,"pción":2281,"▁(1":2282,"▁principio":2283,"▁energía":2284,"▁lista":2285,"▁libre":2286,"▁estás":2287,"▁miembros":2288,"tección":2289,"▁comunicación":2290,"▁posibilidad":2291,"▁bal":2292,"▁Ap":2293,"culo":2294,"▁quieres":2295,"udo":2296,"▁queda":2297,"▁fundam":2298,"▁español":2299,"uales":2300,"▁cambiar":2301,"▁joven":2302,"▁13":2303,"▁habían":2304,"▁recor":2305,"talla":2306,"taba":2307,"are":2308,"▁1.":2309,"licaciones":2310,"bia":2311,"▁descar":2312,"ído":2313,"▁pien":2314,"▁aquellos":2315,"AN":2316,"tividad":2317,"eral":2318,"▁presente":2319,"▁popul":2320,"▁17":2321,"iente":2322,"▁cora":2323,"▁jóvenes":2324,"▁vivir":2325,"▁ninguna":2326,"▁ta":2327,"▁fre":2328,"tiendo":2329,"lam":2330,"▁fuerza":2331,"▁bon":2332,"just":2333,"▁vehícu":2334,"▁niño":2335,"ts":2336,"▁equipos":2337,"▁demasiado":2338,"▁hubi":2339,"▁fecha":2340,"▁Ne":2341,"▁profun":2342,"▁Nos":2343,"▁fan":2344,"arán":2345,"▁plante":2346,"▁viaje":2347,"vieron":2348,"mia":2349,"▁disfrutar":2350,"▁ejecu":2351,"ancias":2352,"▁adqui":2353,"erto":2354,"▁tér":2355,"▁hos":2356,"érica":2357,"▁depor":2358,"▁común":2359,"▁fra":2360,"ducción":2361,"ablemente":2362,"▁sentir":2363,"▁director":2364,"▁épo":2365,"▁comunidad":2366,"▁ofer":2367,"▁capital":2368,"▁agu":2369,"▁Lu":2370,"guen":2371,"▁estre":2372,"nas":2373,"unta":2374,"entan":2375,"▁local":2376,"▁segui":2377,"▁aso":2378,"▁utilizar":2379,"ciación":2380,"iva":2381,"▁cambios":2382,"▁imag":2383,"▁dici":2384,"ruc":2385,"osición":2386,"▁educación":2387,"▁José":2388,"▁Is":2389,"▁Ad":2390,"▁obtener":2391,"▁compren":2392,"ese":2393,"Por":2394,"▁necesidades":2395,"▁tecnología":2396,"tiz":2397,"▁bás":2398,"▁dó":2399,"té":2400,"ill":2401,"▁agra":2402,"▁mismos":2403,"todo":2404,"▁Gran":2405,"▁declar":2406,"▁alre":2407,"▁fab":2408,"▁Pol":2409,"▁viaj":2410,"▁Nuev":2411,"▁principales":2412,"esta":2413,"▁je":2414,"▁especialmente":2415,"ulio":2416,"tarse":2417,"▁Todo":2418,"ase":2419,"▁opciones":2420,"▁interés":2421,"▁puedan":2422,"▁regres":2423,"▁elimin":2424,"icía":2425,"▁negocio":2426,"▁colabor":2427,"▁calle":2428,"▁Europa":2429,"▁priv":2430,"▁demos":2431,"▁existe":2432,"▁neg":2433,"▁video":2434,"▁allá":2435,"▁campo":2436,"▁decisión":2437,"grafía":2438,"▁ubic":2439,"▁Jes":2440,"ónde":2441,"▁suficiente":2442,"▁versión":2443,"▁regu":2444,"▁lar":2445,"ON":2446,"▁der":2447,"▁acción":2448,"tual":2449,"dientes":2450,"ificación":2451,"onas":2452,"▁Conse":2453,"▁Gracias":2454,"▁concep":2455,"▁entrada":2456,"▁trabajadores":2457,"▁Ra":2458,"▁jugadores":2459,"▁enci":2460,"ug":2461,"▁estrateg":2462,"▁momentos":2463,"▁riesgo":2464,"▁diseñ":2465,"▁formación":2466,"▁concre":2467,"Es":2468,"día":2469,"▁limi":2470,"▁sir":2471,"▁vac":2472,"▁gestión":2473,"▁llegó":2474,"▁disposi":2475,"▁profesionales":2476,"▁verda":2477,"media":2478,"▁diferencia":2479,"▁supuesto":2480,"illo":2481,"ale":2482,"▁ojos":2483,"tadas":2484,"▁50":2485,"▁tenga":2486,"ivil":2487,"ándose":2488,"▁piel":2489,"▁alma":2490,"▁cumpl":2491,"ctubre":2492,"▁perder":2493,"▁É":2494,"▁crí":2495,"▁aprovech":2496,"▁temas":2497,"vió":2498,"irma":2499,"don":2500,"▁diciembre":2501,"uestas":2502,"▁públic":2503,"▁crisis":2504,"▁secre":2505,"est":2506,"▁considera":2507,"▁siglo":2508,"▁contenido":2509,"▁presu":2510,"▁añad":2511,"▁provo":2512,"▁doc":2513,"mor":2514,"▁Cam":2515,"▁estaban":2516,"▁interior":2517,"▁nove":2518,"▁sens":2519,"éf":2520,"▁iba":2521,"ft":2522,"forma":2523,"▁ses":2524,"▁crecimiento":2525,"tagon":2526,"▁podía":2527,"▁exten":2528,"▁función":2529,"▁acciones":2530,"ete":2531,"▁individ":2532,"▁ambos":2533,"▁Eso":2534,"▁única":2535,"▁tampoco":2536,"▁partici":2537,"▁Hoy":2538,"▁pareja":2539,"▁móvil":2540,"▁fotos":2541,"▁aire":2542,"bu":2543,"isis":2544,"▁términ":2545,"▁:":2546,"vención":2547,"pres":2548,"▁opera":2549,"▁concl":2550,"▁audi":2551,"▁importancia":2552,"ptiembre":2553,"▁Ja":2554,"▁gui":2555,"Cu":2556,"▁Fa":2557,"cidos":2558,"torno":2559,"▁adi":2560,"rez":2561,"▁partes":2562,"En":2563,"▁organización":2564,"ienda":2565,"zá":2566,"ches":2567,"▁24":2568,"▁compra":2569,"▁clase":2570,"▁muestra":2571,"mágenes":2572,"▁pagar":2573,"▁deman":2574,"gentina":2575,"▁corazón":2576,"▁Entre":2577,"▁Pla":2578,"▁is":2579,"▁semanas":2580,"▁premi":2581,"▁mayores":2582,"▁época":2583,"▁enero":2584,"▁exig":2585,"eran":2586,"▁tierra":2587,"▁suel":2588,"▁provin":2589,"ivos":2590,"▁grupos":2591,"▁convi":2592,"▁entender":2593,"▁Ob":2594,"sito":2595,"glesia":2596,"▁plazo":2597,"echo":2598,"▁formas":2599,"▁conjunto":2600,"icidad":2601,"mul":2602,"▁categ":2603,"▁menor":2604,"▁Sa":2605,"▁electrón":2606,"ple":2607,"▁Cal":2608,"▁euro":2609,"▁excel":2610,"▁lugares":2611,"inado":2612,"▁consu":2613,"▁tur":2614,"Cómo":2615,"ticamente":2616,"▁identific":2617,"cionado":2618,"▁terri":2619,"▁observ":2620,"▁arch":2621,"▁hogar":2622,"▁encontra":2623,"▁simil":2624,"▁recibir":2625,"▁pequeños":2626,"▁online":2627,"▁alrededor":2628,"álisis":2629,"▁libros":2630,"▁moder":2631,"▁somos":2632,"▁Segu":2633,"▁Universidad":2634,"▁ganar":2635,"▁elementos":2636,"▁imágenes":2637,"▁mín":2638,"▁contacto":2639,"▁necesita":2640,"úbl":2641,"▁Fue":2642,"▁#":2643,"▁prueba":2644,"▁encuentro":2645,"teriores":2646,"ke":2647,"▁obras":2648,"OR":2649,"▁autom":2650,"isterio":2651,"uelo":2652,"lla":2653,"▁construcción":2654,"▁teléf":2655,"▁Ay":2656,"▁az":2657,"▁frecu":2658,"▁seis":2659,"▁dirección":2660,"uls":2661,"▁aprender":2662,"▁excl":2663,"▁área":2664,"▁cliente":2665,"cados":2666,"cle":2667,"▁eres":2668,"▁cuad":2669,"▁inm":2670,"▁protagon":2671,"▁ciento":2672,"rantes":2673,"▁2018":2674,"▁dolor":2675,"▁fabric":2676,"▁peso":2677,"▁Fe":2678,"▁vay":2679,"▁octubre":2680,"▁sorpren":2681,"▁impac":2682,"▁Durante":2683,"▁sust":2684,"▁pelig":2685,"▁He":2686,"▁recuer":2687,"▁ampli":2688,"uis":2689,"▁tama":2690,"glés":2691,"▁media":2692,"▁pequeña":2693,"talmente":2694,"▁dólares":2695,"acción":2696,"▁club":2697,"▁vig":2698,"▁selec":2699,"cientes":2700,"▁tradi":2701,"▁impor":2702,"▁simplemente":2703,"▁Vi":2704,"▁multi":2705,"▁indepen":2706,"tran":2707,"olver":2708,"▁len":2709,"▁partidos":2710,"ite":2711,"▁ideas":2712,"▁septiembre":2713,"dí":2714,"▁arri":2715,"▁And":2716,"para":2717,"ner":2718,"▁posición":2719,"tina":2720,"bern":2721,"ell":2722,"ística":2723,"tería":2724,"útbol":2725,"rán":2726,"bal":2727,"▁diferente":2728,"▁características":2729,"▁crea":2730,".-":2731,"▁próximo":2732,"▁debería":2733,"▁Crist":2734,"▁fru":2735,"▁gri":2736,"▁circ":2737,"▁conocimiento":2738,"tamos":2739,"éctr":2740,"▁Hab":2741,"▁obst":2742,"▁figu":2743,"demia":2744,"ID":2745,"▁dan":2746,"óp":2747,"▁acerca":2748,"ira":2749,"▁pregunta":2750,"orme":2751,"▁cine":2752,"▁ofrecer":2753,"▁existen":2754,"▁quién":2755,"▁Gar":2756,"tín":2757,"9,":2758,"▁Tu":2759,"▁proteg":2760,"▁conec":2761,"part":2762,"▁marzo":2763,"xic":2764,"ámara":2765,"▁satis":2766,"▁fis":2767,"▁post":2768,"▁serán":2769,"▁preocup":2770,"▁ahor":2771,"▁estudios":2772,"▁guerra":2773,"▁Fin":2774,"uesto":2775,"entación":2776,"▁inicia":2777,"ieron":2778,"▁tiempos":2779,"▁noviembre":2780,"▁env":2781,"▁Comisión":2782,"▁raz":2783,"▁espera":2784,"▁internacional":2785,"▁movimiento":2786,"zan":2787,"▁ampl":2788,"▁elegir":2789,"enda":2790,"▁prome":2791,"▁usuario":2792,"▁Dis":2793,"▁María":2794,"▁presencia":2795,"▁oficial":2796,"stico":2797,"▁Ba":2798,"cra":2799,"erva":2800,"▁2017":2801,"▁mostr":2802,"▁mane":2803,"ogle":2804,"▁eta":2805,"▁colo":2806,"dentes":2807,"AD":2808,"ráfico":2809,"▁entrev":2810,"AL":2811,"▁titu":2812,"▁ocasiones":2813,"Est":2814,"▁adelante":2815,"▁conduc":2816,"▁campaña":2817,"▁denun":2818,"▁aleg":2819,"▁compartir":2820,"▁superior":2821,"▁habil":2822,"▁acon":2823,"▁humanos":2824,"▁dé":2825,"▁práctica":2826,"cida":2827,"▁Ac":2828,"▁Mor":2829,"ebrero":2830,"arte":2831,"▁resta":2832,"▁vícti":2833,"▁llega":2834,"▁tratamiento":2835,"2,":2836,"▁modi":2837,"▁encima":2838,"ieza":2839,"▁mater":2840,"▁experim":2841,"dieron":2842,"▁inmedia":2843,"iencias":2844,"▁miedo":2845,"▁mensaje":2846,"▁Más":2847,"rimon":2848,"▁contrario":2849,"▁curso":2850,"diz":2851,"▁encuentran":2852,"▁causa":2853,"▁refi":2854,"del":2855,"▁junio":2856,"▁recuper":2857,"▁apor":2858,"▁efecto":2859,"▁Tras":2860,"zás":2861,"▁requier":2862,"▁empezar":2863,"adoras":2864,"▁dor":2865,"▁intent":2866,"▁amigo":2867,"izar":2868,"▁deja":2869,"▁arte":2870,"1,":2871,"▁consecu":2872,"úsque":2873,"▁ambiente":2874,"▁entrar":2875,"▁opinión":2876,"▁2.":2877,"▁extre":2878,"▁Carlos":2879,"▁0":2880,"fil":2881,"▁mayo":2882,"▁material":2883,"▁clave":2884,"▁evalu":2885,"▁protección":2886,"▁debemos":2887,"rios":2888,"▁rápido":2889,"▁aprob":2890,"▁tendrá":2891,"▁participación":2892,"ódi":2893,"xim":2894,"▁bor":2895,"▁mara":2896,"itantes":2897,"▁llamado":2898,"▁máximo":2899,"▁coche":2900,"▁colec":2901,"zquier":2902,"▁título":2903,"▁Pues":2904,"▁pronto":2905,"▁llama":2906,"▁palabra":2907,"▁pocos":2908,"▁cargo":2909,"▁interesante":2910,"▁baja":2911,"▁bel":2912,"▁Todos":2913,"mite":2914,"▁queremos":2915,"cito":2916,"▁Hola":2917,"▁desarrollar":2918,"▁levan":2919,"▁Señ":2920,"▁vuelta":2921,"▁oblig":2922,"▁incor":2923,"alizado":2924,"▁busca":2925,"▁histór":2926,"▁siguientes":2927,"édi":2928,"▁suerte":2929,"▁pública":2930,"▁vin":2931,"▁Algun":2932,"▁aband":2933,"▁cient":2934,"duca":2935,"▁economía":2936,"reas":2937,"vación":2938,"▁repar":2939,"metros":2940,"▁totalmente":2941,"▁región":2942,"▁recl":2943,"▁General":2944,"íos":2945,"▁Jesús":2946,"▁cub":2947,"▁candida":2948,"▁modelos":2949,"▁completo":2950,"▁gén":2951,"▁podrá":2952,"▁Estos":2953,"▁inglés":2954,"▁velo":2955,"▁búsque":2956,"▁Ver":2957,"▁vesti":2958,"▁edifici":2959,"▁cuestión":2960,"▁Argentina":2961,"▁manifes":2962,"▁dónde":2963,"▁comida":2964,"tion":2965,"▁agrade":2966,"▁competi":2967,"▁Sí":2968,"▁sum":2969,"entales":2970,"▁directamente":2971,"IC":2972,"▁2016":2973,"▁tipos":2974,"▁acce":2975,"▁pago":2976,"▁ajust":2977,"▁elabor":2978,"▁Ti":2979,"▁obli":2980,"ciado":2981,"▁2020":2982,"▁40":2983,"▁eléctr":2984,"▁Comun":2985,"▁verano":2986,"▁tratar":2987,"tora":2988,"▁quería":2989,"▁defini":2990,"▁Prim":2991,"▁voz":2992,"itación":2993,"▁relaciones":2994,"▁debes":2995,"▁Pas":2996,"▁convertir":2997,"▁lig":2998,"ública":2999,"▁conocido":3000,"▁inversión":3001,"entemente":3002,"▁comprom":3003,"▁volun":3004,"▁198":3005,"▁mundial":3006,"▁tamaño":3007,"cili":3008,"oro":3009,"▁separ":3010,"culos":3011,"▁colores":3012,"▁Google":3013,"▁vie":3014,"▁buenas":3015,"▁olvid":3016,"▁familias":3017,"▁solución":3018,"▁estuvo":3019,"turales":3020,"ubo":3021,"one":3022,"úa":3023,"greso":3024,"▁cumplir":3025,"▁segura":3026,"▁objetivos":3027,"▁vic":3028,"esa":3029,"▁económica":3030,"▁análisis":3031,"her":3032,"▁libertad":3033,"▁interpre":3034,"▁Fern":3035,"▁creación":3036,"▁Consejo":3037,"▁febrero":3038,"▁pena":3039,"▁tercer":3040,"▁cultura":3041,"▁detalles":3042,"celona":3043,"▁Emp":3044,"▁fondo":3045,"▁intelig":3046,"▁europe":3047,"umen":3048,"▁contin":3049,"▁Luego":3050,"5,":3051,"▁podrás":3052,"▁Esp":3053,"▁comenzó":3054,"▁ros":3055,"▁jugador":3056,"▁escuela":3057,"ritu":3058,"ajas":3059,"tía":3060,"ramos":3061,"▁ejercicio":3062,"ame":3063,"pir":3064,"▁julio":3065,"riendo":3066,"▁enla":3067,"pectos":3068,"▁confianza":3069,"▁déc":3070,"▁crist":3071,"▁perten":3072,"op":3073,"!!!":3074,"▁conoce":3075,"▁pruebas":3076,"▁mit":3077,"▁tienda":3078,"▁Porque":3079,"▁Luis":3080,"zada":3081,"▁ori":3082,"omin":3083,"lev":3084,"▁resist":3085,"▁programas":3086,"▁izquier":3087,"tencia":3088,"▁venta":3089,"▁preten":3090,"mbi":3091,"▁habitu":3092,"ferencia":3093,"▁antigu":3094,"▁constitu":3095,"▁Bueno":3096,"ruir":3097,"ficul":3098,"rer":3099,"curso":3100,"▁distintos":3101,"▁dia":3102,"▁efectos":3103,"▁garanti":3104,"book":3105,".\"":3106,"▁alterna":3107,"ki":3108,"▁políticas":3109,"▁blo":3110,"▁Sec":3111,"▁pers":3112,"▁herramientas":3113,"rica":3114,"▁informe":3115,"ém":3116,"▁dev":3117,"▁Asi":3118,"gada":3119,"▁autoridades":3120,"▁histor":3121,"▁impos":3122,"▁artículos":3123,"idores":3124,"gosto":3125,"▁Cada":3126,"▁metros":3127,"▁atrás":3128,"▁sacar":3129,"▁Creo":3130,"▁continuación":3131,"▁abril":3132,"pital":3133,"▁mez":3134,"▁estudiantes":3135,"▁Entonces":3136,"▁dificul":3137,"▁desarroll":3138,"▁trabajando":3139,"3,":3140,"▁famos":3141,"ry":3142,"▁intro":3143,"▁personajes":3144,"▁escribir":3145,"▁participar":3146,"▁propuesta":3147,"▁Internet":3148,"caciones":3149,"▁fútbol":3150,"▁pier":3151,"▁texto":3152,"▁preguntas":3153,"▁ali":3154,"▁hubiera":3155,"▁humano":3156,"ka":3157,"▁desemp":3158,"▁aten":3159,"▁sistemas":3160,"tiles":3161,"▁beneficios":3162,"▁pelo":3163,"▁complic":3164,"▁buenos":3165,"▁relig":3166,"▁zonas":3167,"mano":3168,"ífico":3169,"vio":3170,"▁Ab":3171,"▁absolu":3172,"▁mitad":3173,"▁enfermedad":3174,"▁normal":3175,"▁apre":3176,"▁origen":3177,"trimon":3178,"▁Ciudad":3179,"▁Barcelona":3180,"▁terc":3181,"▁Ni":3182,"▁pér":3183,"ork":3184,"▁puerta":3185,"ulas":3186,"▁aspectos":3187,"▁esperar":3188,"ima":3189,"▁escuch":3190,"irmó":3191,"▁brin":3192,"▁conce":3193,"▁ayer":3194,"ket":3195,"▁Ban":3196,"uestro":3197,"▁Aquí":3198,"▁suelo":3199,"▁come":3200,"▁esfuerzo":3201,"▁violencia":3202,"dios":3203,"▁teléfono":3204,"▁ocup":3205,"▁oper":3206,"▁capaz":3207,"▁maravil":3208,"▁inicio":3209,"uerto":3210,"▁demo":3211,"▁num":3212,"idamente":3213,"vimos":3214,"taría":3215,"',":3216,"▁quieren":3217,"▁escen":3218,"▁prev":3219,"▁motivo":3220,"▁transform":3221,"ff":3222,"cada":3223,"▁jorn":3224,"tuvo":3225,"▁pun":3226,"▁maes":3227,"▁Ho":3228,"▁21":3229,"▁mec":3230,"▁convir":3231,"▁comentarios":3232,"▁ámbi":3233,"▁$":3234,"▁kil":3235,"▁pudo":3236,"▁niveles":3237,"▁trabajos":3238,"▁cel":3239,"▁ton":3240,"table":3241,"▁desc":3242,"▁lucha":3243,"▁naturaleza":3244,"▁veci":3245,"▁norte":3246,"▁glo":3247,"▁selección":3248,"▁espos":3249,"▁consum":3250,"▁muer":3251,"didos":3252,"▁pasó":3253,"▁económico":3254,"▁cuidado":3255,"▁minist":3256,"mismo":3257,"▁distintas":3258,"▁Hace":3259,"▁Santa":3260,"▁hon":3261,"rí":3262,"▁inno":3263,"éndo":3264,"arla":3265,"▁mente":3266,"ísimo":3267,"▁precis":3268,"▁pantalla":3269,"▁buscando":3270,"▁procesos":3271,"ír":3272,"▁periodi":3273,"ienen":3274,"▁cif":3275,"ciona":3276,"▁materiales":3277,"▁Ley":3278,"▁nega":3279,"▁Nav":3280,"▁búsqueda":3281,"tida":3282,"ardo":3283,"▁incorpor":3284,"tui":3285,"▁aumento":3286,"▁esca":3287,"pro":3288,"este":3289,"▁educa":3290,"iza":3291,"▁Sus":3292,"2.":3293,"▁exac":3294,"▁perío":3295,"ware":3296,"reno":3297,"enso":3298,"▁[":3299,"▁político":3300,"▁popular":3301,"▁desapar":3302,"4,":3303,"▁gratis":3304,"▁Mientras":3305,"▁ocasión":3306,"▁presenta":3307,"▁edición":3308,"ecía":3309,"▁marcha":3310,"▁pra":3311,"▁Europe":3312,"▁habla":3313,"▁Direc":3314,"▁bienes":3315,"iano":3316,"▁materia":3317,"cepción":3318,"▁laboral":3319,"▁golpe":3320,"▁peor":3321,"▁Ven":3322,"▁sabemos":3323,"dores":3324,"▁adul":3325,"▁disco":3326,"▁constante":3327,"omas":3328,"▁CO":3329,"▁lin":3330,"ps":3331,"▁cob":3332,"▁Mundial":3333,"▁amena":3334,"▁ga":3335,"▁sob":3336,"▁2019":3337,"tará":3338,"▁civil":3339,"udades":3340,"bilidades":3341,"▁hechos":3342,"▁defen":3343,"▁dicen":3344,"uniden":3345,"▁consumo":3346,"▁discu":3347,"▁haga":3348,"▁diez":3349,"▁militar":3350,"▁The":3351,"▁responsabilidad":3352,"entado":3353,"▁tro":3354,"▁cumpli":3355,"▁pose":3356,"ies":3357,"▁agosto":3358,"▁Cl":3359,"▁estad":3360,"▁gal":3361,"▁gobern":3362,"ordin":3363,"unes":3364,"americ":3365,"▁género":3366,"▁campe":3367,"▁entorno":3368,"▁hija":3369,"ablo":3370,"▁cic":3371,"▁llegado":3372,"▁salida":3373,"▁nave":3374,"▁clás":3375,"▁dejó":3376,"▁original":3377,"TA":3378,"▁Mer":3379,"▁darle":3380,"▁lejos":3381,"ye":3382,"▁resulta":3383,"tales":3384,"IN":3385,"▁arm":3386,"▁podrían":3387,"▁Nueva":3388,"▁pedir":3389,"orías":3390,"ático":3391,"tilla":3392,"▁habrá":3393,"▁empleo":3394,"▁apenas":3395,"tantes":3396,"▁visita":3397,"deos":3398,"cebook":3399,"▁estrategia":3400,"▁obten":3401,"migo":3402,"ular":3403,"▁arriba":3404,"▁ciudadanos":3405,"ines":3406,"1.":3407,"▁industria":3408,"▁ganas":3409,"mer":3410,"▁abrir":3411,"▁pul":3412,"tino":3413,"▁alumnos":3414,"▁locales":3415,"▁ciudades":3416,"▁tir":3417,"ernes":3418,"▁plataforma":3419,"▁publ":3420,"▁incluye":3421,"▁teniendo":3422,"illas":3423,"▁lanz":3424,"▁tenían":3425,"▁instru":3426,"▁habría":3427,"ll":3428,"▁restau":3429,"▁Ter":3430,"0.":3431,"▁gratui":3432,"▁satisf":3433,"ian":3434,"▁referencia":3435,"▁ideal":3436,"▁mesa":3437,"leo":3438,"▁aspecto":3439,"▁valores":3440,"▁esco":3441,"▁contrib":3442,"▁dudas":3443,"itales":3444,"au":3445,"▁sueño":3446,"▁toma":3447,"▁gustaría":3448,"▁clases":3449,"llas":3450,"▁conflic":3451,"▁Sol":3452,"▁Estas":3453,"▁mexic":3454,"▁situaciones":3455,"▁monta":3456,"▁Del":3457,"▁ár":3458,"▁evento":3459,"▁espacios":3460,"▁alimentos":3461,"▁ido":3462,"▁realizado":3463,"▁hicieron":3464,"▁decisiones":3465,"▁visitar":3466,"amp":3467,"▁Os":3468,"▁paz":3469,"▁pase":3470,"uestos":3471,"▁etapa":3472,"▁nar":3473,"▁actualmente":3474,"ong":3475,"▁hacía":3476,"▁presentar":3477,"▁éste":3478,"▁acci":3479,"▁inci":3480,"laz":3481,"tric":3482,"tidos":3483,"▁médico":3484,"▁entrega":3485,"▁diario":3486,"▁estadouniden":3487,"cación":3488,"▁tradu":3489,"▁Uno":3490,"▁banda":3491,"▁veo":3492,"▁tarje":3493,"▁preci":3494,"ortal":3495,"▁fundamental":3496,"sidad":3497,"▁sabes":3498,"▁descri":3499,"logo":3500,"▁compro":3501,"▁asegurar":3502,"▁bra":3503,"▁incon":3504,"▁justo":3505,"▁principios":3506,"▁197":3507,"▁digo":3508,"ielo":3509,"titud":3510,"▁concent":3511,"▁oscu":3512,"▁descan":3513,"col":3514,"didas":3515,"lí":3516,"áis":3517,"IS":3518,"▁legis":3519,"dica":3520,"▁and":3521,"iempre":3522,"▁infl":3523,"ológico":3524,"▁completamente":3525,"vel":3526,"▁revis":3527,"ódigo":3528,"ws":3529,"▁Tor":3530,"mentación":3531,"▁televisión":3532,"▁señor":3533,"ácter":3534,"Qui":3535,"▁adop":3536,"▁reducir":3537,"▁acces":3538,"▁enorme":3539,"▁velocidad":3540,"▁políticos":3541,"tia":3542,"▁mostrar":3543,"▁dem":3544,"▁prensa":3545,"tarios":3546,"ést":3547,"▁quedó":3548,"▁abandon":3549,"▁carácter":3550,"▁capaci":3551,"▁Centro":3552,"▁personaje":3553,"pó":3554,"lad":3555,"▁blanco":3556,"▁compañeros":3557,"gaciones":3558,"▁fui":3559,"▁categoría":3560,"iar":3561,"tidades":3562,"▁escuchar":3563,"▁pone":3564,"▁ín":3565,"▁América":3566,"partamento":3567,"ional":3568,"▁animales":3569,"▁elecciones":3570,"▁enfo":3571,"▁Tal":3572,"▁suele":3573,"▁Rep":3574,"▁tas":3575,"▁policía":3576,"fas":3577,"ática":3578,"▁hom":3579,"▁hubo":3580,"geni":3581,"▁digital":3582,"▁propon":3583,"▁llamada":3584,"▁ens":3585,"▁internet":3586,"ers":3587,"▁compromiso":3588,"▁juntos":3589,"TE":3590,"▁facil":3591,"▁dibu":3592,"▁feliz":3593,"yó":3594,"▁funciones":3595,"▁películas":3596,"▁primeras":3597,"capa":3598,"▁extran":3599,"rito":3600,"▁propios":3601,"▁ór":3602,"▁circun":3603,"▁23":3604,"▁exclus":3605,"dena":3606,"ack":3607,"mán":3608,"▁aut":3609,"dra":3610,"▁excelente":3611,"▁Dan":3612,"▁impacto":3613,"▁avi":3614,"▁posterior":3615,"arme":3616,"▁siento":3617,"▁22":3618,"▁tab":3619,"▁Colom":3620,"▁sín":3621,"▁Institu":3622,"legio":3623,"▁finalmente":3624,"▁siquiera":3625,"▁Interna":3626,"▁Ministerio":3627,"▁visión":3628,"▁signific":3629,"▁dando":3630,"▁distancia":3631,"▁técnica":3632,"íritu":3633,"▁modific":3634,"éndose":3635,"▁ropa":3636,"▁tengan":3637,"▁presupuesto":3638,"ibilidad":3639,"drá":3640,"▁Da":3641,"▁técnico":3642,"▁Real":3643,"▁marcas":3644,"▁dura":3645,"▁período":3646,"▁transporte":3647,"▁muest":3648,"▁miles":3649,"rando":3650,"od":3651,"▁sola":3652,"▁finales":3653,"jado":3654,"quina":3655,"▁II":3656,"▁conserv":3657,"pes":3658,"▁fras":3659,"uye":3660,"▁aplicaciones":3661,"▁Él":3662,"rump":3663,"▁Martín":3664,"▁aproxim":3665,"▁representa":3666,"▁distribu":3667,"▁oferta":3668,"▁repe":3669,"▁correo":3670,"Se":3671,"▁disponible":3672,"▁aun":3673,"▁reunión":3674,"▁mala":3675,"▁obstante":3676,"▁x":3677,"▁cocina":3678,"▁viernes":3679,"▁posibilidades":3680,"▁anteriores":3681,"▁marco":3682,"▁alcanzar":3683,"▁doble":3684,"▁contemp":3685,"sitos":3686,"▁comenzar":3687,"▁empren":3688,"▁bre":3689,"AM":3690,"▁intentar":3691,"alizada":3692,"▁tre":3693,"▁Anton":3694,"▁án":3695,"▁reno":3696,"tículo":3697,"▁podrán":3698,"ónica":3699,"lores":3700,"▁sencillo":3701,"estr":3702,"▁estim":3703,"▁har":3704,"▁familiar":3705,"▁Chile":3706,"com":3707,"▁univer":3708,"port":3709,"▁apun":3710,"arnos":3711,"aro":3712,"▁efica":3713,"ello":3714,"▁Ta":3715,"▁podido":3716,"▁páginas":3717,"▁admi":3718,"▁presiden":3719,"▁bebé":3720,"pal":3721,"▁provincia":3722,"▁dic":3723,"▁comba":3724,"tigo":3725,"▁ingresos":3726,"enci":3727,"▁responsable":3728,"▁defensa":3729,"▁fer":3730,"torios":3731,"▁Señor":3732,"▁tempera":3733,"▁centros":3734,"ilar":3735,"▁genera":3736,"▁perfecto":3737,"gamos":3738,"wit":3739,"▁alcal":3740,"vado":3741,"trimonio":3742,"▁bril":3743,"ética":3744,"▁testi":3745,"▁convo":3746,"▁domingo":3747,"▁aprendiz":3748,"▁Facebook":3749,"dal":3750,"▁derro":3751,"▁presentación":3752,"encial":3753,"▁nota":3754,"▁ofrec":3755,"▁ment":3756,"▁suje":3757,"▁repro":3758,"▁siete":3759,"ructura":3760,"▁Plan":3761,"▁60":3762,"▁recib":3763,"▁detrás":3764,"8,":3765,"deres":3766,"▁enter":3767,"íficos":3768,"▁Unión":3769,"▁guard":3770,"▁increí":3771,"ko":3772,"▁estará":3773,"▁hotel":3774,"▁fron":3775,"50":3776,"▁funciona":3777,"▁explica":3778,"▁cuentas":3779,"▁dispar":3780,"▁dismin":3781,"▁1,":3782,"▁inclu":3783,"▁Ag":3784,"▁familiares":3785,"▁emi":3786,"▁ras":3787,"▁comenz":3788,"▁grave":3789,"▁permitir":3790,"▁2015":3791,"▁psic":3792,"▁torn":3793,"▁Ros":3794,"▁sangre":3795,"▁presión":3796,"uelas":3797,"▁3.":3798,"san":3799,"▁sáb":3800,"▁comport":3801,"▁ventas":3802,"▁fir":3803,"laciones":3804,"▁negocios":3805,"edes":3806,"▁crédi":3807,"▁términos":3808,"▁deten":3809,"▁agre":3810,"▁nie":3811,"▁pasos":3812,"▁consigui":3813,"▁Pos":3814,"▁q":3815,"gración":3816,"▁contrato":3817,"▁acceder":3818,"▁actualidad":3819,"▁destino":3820,"▁descono":3821,"▁perfil":3822,"▁26":3823,"▁Ped":3824,"▁quin":3825,"▁mem":3826,"▁siguen":3827,"▁mismas":3828,"etas":3829,"▁pandemia":3830,"inci":3831,"▁concepto":3832,"orge":3833,"iber":3834,"amb":3835,"quitec":3836,"ístico":3837,"▁líneas":3838,"▁generación":3839,"▁sensación":3840,"▁facili":3841,"▁cuarto":3842,"▁líder":3843,"▁atrac":3844,"▁prefer":3845,"ída":3846,"▁últimas":3847,"▁Cab":3848,"▁Gal":3849,"▁rit":3850,"▁bara":3851,"ribun":3852,"▁herramienta":3853,"▁jur":3854,"▁revel":3855,"▁due":3856,"gó":3857,"▁mencion":3858,"▁vino":3859,"uri":3860,"tumb":3861,"▁hermos":3862,"▁mam":3863,"sion":3864,"▁estructura":3865,"uicio":3866,"rismo":3867,"▁prior":3868,"▁argu":3869,"▁recha":3870,"▁imple":3871,"▁compon":3872,"ly":3873,"▁Muchas":3874,"▁corre":3875,"▁Francis":3876,"▁cámara":3877,"▁27":3878,"▁embara":3879,"▁clic":3880,"▁detec":3881,"▁Pr":3882,"▁sosten":3883,"▁vía":3884,"▁organizaciones":3885,"▁gusto":3886,"▁Cons":3887,"uegos":3888,"stru":3889,"▁Siempre":3890,"ibl":3891,"▁razones":3892,"ismos":3893,"▁regal":3894,"▁guar":3895,"▁objeto":3896,"ide":3897,"▁demanda":3898,"▁vehículo":3899,"▁falle":3900,"▁superfici":3901,"▁Sab":3902,"▁pis":3903,"▁solamente":3904,"▁Colombia":3905,"▁tex":3906,"▁pobre":3907,"▁mic":3908,"▁redu":3909,"cla":3910,"▁Tan":3911,"▁mejora":3912,"▁China":3913,"untamiento":3914,"▁central":3915,"▁señaló":3916,"tades":3917,"▁fiesta":3918,"onia":3919,"▁derecha":3920,"▁canción":3921,"▁aumentar":3922,"▁áreas":3923,"itario":3924,"▁quizás":3925,"▁acos":3926,"jero":3927,"▁cuán":3928,"ip":3929,"▁generar":3930,"▁jefe":3931,"▁Puede":3932,"▁escrito":3933,"▁imposible":3934,"▁llevó":3935,"▁za":3936,"▁Pal":3937,"raciones":3938,"▁cualquiera":3939,"▁periodo":3940,"▁Just":3941,"triz":3942,"▁pequeñas":3943,"▁vehículos":3944,"osos":3945,"▁personales":3946,"▁posibles":3947,"▁técnicas":3948,"cor":3949,"▁pesos":3950,"▁fuerzas":3951,"▁carga":3952,"▁demostr":3953,"▁Sh":3954,"▁mus":3955,"▁hablando":3956,"didad":3957,"▁industri":3958,"▁decor":3959,"▁Francia":3960,"▁acto":3961,"▁suelen":3962,"▁Incl":3963,"▁terminar":3964,"▁Her":3965,"tudes":3966,"▁recordar":3967,"▁sitios":3968,"resa":3969,"dencias":3970,"▁Reg":3971,"▁mínimo":3972,"ández":3973,"▁ámbito":3974,"berto":3975,"▁despe":3976,"▁entrevista":3977,"3.":3978,"▁lunes":3979,"▁sup":3980,"enos":3981,"▁supone":3982,"▁investig":3983,"viera":3984,"▁amar":3985,"▁requiere":3986,"▁encanta":3987,"▁moda":3988,"▁oc":3989,"▁cumple":3990,"▁negro":3991,"▁izquierda":3992,"▁infan":3993,"▁fuente":3994,"▁Iglesia":3995,"▁residen":3996,"▁Artículo":3997,"▁Au":3998,"▁vecinos":3999,"▁escrib":4000,"▁%":4001,"▁lic":4002,"▁hermano":4003,"amentos":4004,"deración":4005,"▁memoria":4006,"▁habitación":4007,"▁Cre":4008,"▁altura":4009,"▁física":4010,"▁conform":4011,"▁idi":4012,"lesc":4013,"▁parecer":4014,"▁ayu":4015,"▁bloque":4016,"▁enfrent":4017,"▁visit":4018,"▁instituciones":4019,"▁err":4020,"▁circunst":4021,"ífica":4022,"▁explicó":4023,"▁mol":4024,"▁rece":4025,"▁almacen":4026,"▁28":4027,"▁May":4028,"▁Día":4029,"vas":4030,"uencias":4031,"▁Hasta":4032,"▁Ve":4033,"▁abog":4034,"ológica":4035,"▁empleados":4036,"▁aparece":4037,"▁error":4038,"tim":4039,"▁menudo":4040,"▁ocho":4041,"▁Mig":4042,"▁calles":4043,"▁jornada":4044,"roso":4045,"▁ustedes":4046,"▁LA":4047,"▁elección":4048,"▁comercial":4049,"▁Mal":4050,"taria":4051,"▁tiendas":4052,"cimientos":4053,"dado":4054,"▁especie":4055,"▁music":4056,"9.":4057,"▁estén":4058,"mbre":4059,"▁norma":4060,"▁pacientes":4061,"▁respec":4062,"rales":4063,"▁numeros":4064,"▁Solo":4065,"ñar":4066,"▁entra":4067,"▁hará":4068,"▁competencia":4069,"osi":4070,"mentar":4071,"▁profesor":4072,"▁similar":4073,"▁española":4074,"ético":4075,"▁Estoy":4076,"jan":4077,"logía":4078,"fin":4079,"▁lengu":4080,"▁Está":4081,"▁respeto":4082,"▁pasando":4083,"▁noticia":4084,"▁aquella":4085,"quer":4086,"4.":4087,"▁•":4088,"gul":4089,"▁avent":4090,"▁otor":4091,"▁abajo":4092,"▁Salud":4093,"▁Imp":4094,"▁grab":4095,"▁diversos":4096,"▁pec":4097,"'.":4098,"▁tercera":4099,"amor":4100,"▁resolver":4101,"▁alguno":4102,"▁Social":4103,"▁Ej":4104,"▁tarea":4105,"▁electrónico":4106,"▁PS":4107,"▁bi":4108,"▁completa":4109,"▁disposición":4110,"▁puedas":4111,"▁factores":4112,"tienen":4113,"▁útil":4114,"erno":4115,"lido":4116,"tulos":4117,"su":4118,"toral":4119,"7,":4120,"▁relev":4121,"▁construir":4122,"▁deporte":4123,"▁divi":4124,"▁ocurre":4125,"▁At":4126,"ificar":4127,"▁movil":4128,"▁motor":4129,"▁administración":4130,"▁Don":4131,"mania":4132,"rique":4133,"▁carre":4134,"▁Super":4135,"▁kiló":4136,"▁prove":4137,"▁requi":4138,"6,":4139,"▁establecer":4140,"gü":4141,"▁recuerdo":4142,"▁SE":4143,"ciles":4144,"hn":4145,"▁árbol":4146,"▁oportunidades":4147,"▁rode":4148,"mática":4149,"▁(2":4150,"▁Presidente":4151,"▁Secre":4152,"▁consecuencia":4153,"áticos":4154,"manos":4155,"▁disponibles":4156,"▁necesitan":4157,"▁República":4158,"▁apare":4159,"▁vídeo":4160,"▁ano":4161,"lib":4162,"últi":4163,"▁dejado":4164,"▁div":4165,"▁noticias":4166,"▁pérdida":4167,"▁figura":4168,"▁sábado":4169,"ím":4170,"▁expertos":4171,"▁aprendizaje":4172,"▁PR":4173,"vido":4174,"yas":4175,"▁rendimiento":4176,"▁miembro":4177,"▁escenario":4178,"▁bu":4179,"▁Antonio":4180,"keting":4181,"▁propó":4182,"▁larga":4183,"▁Rey":4184,"▁Pablo":4185,"▁infer":4186,"▁Der":4187,"▁diá":4188,"▁afi":4189,"▁desper":4190,"▁reac":4191,"▁casas":4192,"▁ran":4193,"▁dicha":4194,"icio":4195,"puestos":4196,"▁intención":4197,"pan":4198,"▁vivienda":4199,"▁acus":4200,"▁deseo":4201,"▁Fo":4202,"ond":4203,"▁intereses":4204,"▁Francisco":4205,"▁human":4206,"Los":4207,"▁arro":4208,"▁cuyo":4209,"▁victoria":4210,"ientes":4211,"edor":4212,"dico":4213,"aca":4214,"▁llegada":4215,"▁Je":4216,"▁Pedro":4217,"áles":4218,"▁reflex":4219,"▁sesión":4220,"▁delante":4221,"esto":4222,"▁conocimientos":4223,"▁ace":4224,"▁triun":4225,"ance":4226,"▁Sólo":4227,"▁reti":4228,"▁fle":4229,"▁gastos":4230,"anzas":4231,"▁rey":4232,"jes":4233,"▁puso":4234,"▁municipio":4235,"use":4236,"▁cree":4237,"▁públicos":4238,"▁Mil":4239,"▁edificio":4240,"▁escol":4241,"▁Cos":4242,"▁Mas":4243,"yos":4244,"▁ataque":4245,"▁pele":4246,"lez":4247,"▁Dav":4248,"▁Th":4249,"▁Antes":4250,"▁consejos":4251,"▁importa":4252,"teras":4253,"torial":4254,"▁202":4255,"▁azul":4256,"▁contenidos":4257,"▁planes":4258,"▁magn":4259,"▁cereb":4260,"▁sabía":4261,"▁cán":4262,"▁consegui":4263,"▁ritmo":4264,"ueves":4265,"▁espero":4266,"▁menores":4267,"▁iniciativa":4268,"▁exterior":4269,"ariamente":4270,"▁mad":4271,"▁boca":4272,"▁adolesc":4273,"▁fase":4274,"▁fuentes":4275,"▁cuál":4276,"▁diversas":4277,"ábamos":4278,"Me":4279,"▁fuego":4280,"▁descubrir":4281,"ED":4282,"▁vaya":4283,"▁abra":4284,"▁tareas":4285,"ité":4286,"▁saben":4287,"▁reclam":4288,"echos":4289,"ologías":4290,"▁dij":4291,"gia":4292,"▁prefi":4293,"ruz":4294,"if":4295,"▁York":4296,"▁US":4297,"ign":4298,"▁individu":4299,"▁experiencias":4300,"▁Bol":4301,"▁fas":4302,"▁método":4303,"▁exam":4304,"sto":4305,"▁Miguel":4306,"guay":4307,"▁sale":4308,"viamente":4309,"▁Tengo":4310,"▁descon":4311,"▁corona":4312,"imen":4313,"▁mensajes":4314,"▁carta":4315,"▁lectura":4316,"▁nomb":4317,"▁há":4318,"▁propuestas":4319,"▁vuelve":4320,"▁internacionales":4321,"▁vivo":4322,"▁funcionamiento":4323,"▁encontramos":4324,"▁escal":4325,"lin":4326,"▁hal":4327,"▁Ben":4328,"▁196":4329,"▁ES":4330,"emen":4331,"▁desempe":4332,"▁radio":4333,"▁soluciones":4334,"▁debajo":4335,"▁deri":4336,"▁cari":4337,"▁propiedad":4338,"radas":4339,"▁perdido":4340,"▁corri":4341,"▁ofrecen":4342,"▁variedad":4343,"▁hacemos":4344,"▁decidió":4345,"▁historias":4346,"▁pensando":4347,"cando":4348,"▁prom":4349,"teles":4350,"▁novela":4351,"▁silen":4352,"tique":4353,"▁vender":4354,"aliza":4355,"▁decía":4356,"▁pocas":4357,"▁sectores":4358,"▁coinci":4359,"▁víctimas":4360,"▁comprome":4361,"▁principalmente":4362,"▁configu":4363,"▁ep":4364,"▁colaboración":4365,"▁decl":4366,"hu":4367,"tador":4368,"▁unidad":4369,"▁Internacional":4370,"exión":4371,"▁arquitec":4372,"▁Fer":4373,"▁sexual":4374,"ftware":4375,"▁rápidamente":4376,"virus":4377,"mis":4378,"▁maravillos":4379,"▁contexto":4380,"▁justicia":4381,"RA":4382,"▁necesitas":4383,"▁realiza":4384,"▁verdadera":4385,"▁traslad":4386,"rasil":4387,"zca":4388,"▁corto":4389,"deral":4390,"irse":4391,"itaria":4392,"iel":4393,"II":4394,"▁prácticas":4395,"5%":4396,"uc":4397,"pia":4398,"▁vacaciones":4399,"▁recibi":4400,"▁permiti":4401,"▁territorio":4402,"▁instalaciones":4403,"cieron":4404,"▁transmi":4405,"▁Algunos":4406,"▁vive":4407,"▁eventos":4408,"▁Gon":4409,"erta":4410,"▁Gru":4411,"▁vio":4412,"▁motiv":4413,"▁ó":4414,"▁infra":4415,"▁taller":4416,"▁Pan":4417,"▁Era":4418,"▁García":4419,"▁Rus":4420,"▁proteger":4421,"▁vos":4422,"▁mari":4423,"▁chica":4424,"▁ésta":4425,"imientos":4426,"▁hospital":4427,"ructu":4428,"▁puertas":4429,"▁bici":4430,"▁rápida":4431,"rarse":4432,"ráfic":4433,"anía":4434,"▁impuls":4435,"▁grado":4436,"▁empezó":4437,"▁rue":4438,"▁puestos":4439,"▁compa":4440,"▁hayan":4441,"▁bes":4442,"▁tendencia":4443,"▁aquellas":4444,"▁futbol":4445,"▁propias":4446,"▁jam":4447,"▁piezas":4448,"▁Seguridad":4449,"▁dispu":4450,"▁sonido":4451,"▁bur":4452,"▁calor":4453,"▁subir":4454,"ses":4455,"▁especiales":4456,"▁Sobre":4457,"▁utiliza":4458,"▁ciencia":4459,"dría":4460,"▁duro":4461,"▁recibió":4462,"▁reserv":4463,"▁Ama":4464,"▁barrio":4465,"ick":4466,"▁equilib":4467,"▁informa":4468,"De":4469,"ópez":4470,"▁cerc":4471,"uras":4472,"▁probablemente":4473,"ól":4474,"▁convertido":4475,"▁ambas":4476,"▁80":4477,"▁arreg":4478,"▁Fel":4479,"▁vemos":4480,"plic":4481,"▁Alemania":4482,"▁sección":4483,"cidas":4484,"gados":4485,"ército":4486,"zon":4487,"▁aseguró":4488,"▁desaf":4489,"▁Án":4490,"Con":4491,"teca":4492,"▁Manuel":4493,"▁amplia":4494,"▁canciones":4495,"▁entien":4496,"▁terror":4497,"dó":4498,"reras":4499,"él":4500,"▁probar":4501,"▁directo":4502,"▁cierta":4503,"▁firm":4504,"▁Asimismo":4505,"rag":4506,"▁madera":4507,"▁documento":4508,"iores":4509,"▁»":4510,"▁López":4511,"▁manda":4512,"fé":4513,"coles":4514,"witter":4515,".,":4516,"▁sensi":4517,"▁próxima":4518,"▁fich":4519,"▁oro":4520,"▁Cap":4521,"▁bri":4522,"▁precisamente":4523,"▁planta":4524,"▁permiten":4525,"rue":4526,"▁Actu":4527,"cambi":4528,"enten":4529,"cés":4530,"▁pob":4531,"▁Pi":4532,"▁Ese":4533,"▁llevan":4534,"▁encontrado":4535,"▁oficina":4536,"▁operación":4537,"▁kilómetros":4538,"ty":4539,"eres":4540,"mes":4541,"iana":4542,"▁Puedes":4543,"ultura":4544,"▁EL":4545,"▁Otra":4546,"▁avis":4547,"zco":4548,"gna":4549,"▁tranqui":4550,"▁fiscal":4551,"ecuencias":4552,"▁emerg":4553,"▁Instituto":4554,"uno":4555,"▁program":4556,"arma":4557,"▁garantizar":4558,"▁cá":4559,"▁suspen":4560,"▁Educación":4561,"ples":4562,"▁Otro":4563,"como":4564,"▁Hum":4565,"▁habitantes":4566,"▁recuerda":4567,"utri":4568,"▁cuya":4569,"▁Servi":4570,"sición":4571,"onos":4572,"▁comercio":4573,"mites":4574,"▁operaciones":4575,"vos":4576,"▁Congreso":4577,"▁criter":4578,"estiv":4579,"▁naturales":4580,"▁adelan":4581,"▁ventaja":4582,"▁Esc":4583,"▁Har":4584,"▁dipu":4585,"▁creer":4586,"ker":4587,"▁explo":4588,"▁niña":4589,"▁pedido":4590,"▁recon":4591,"▁habitual":4592,"▁pies":4593,"▁armas":4594,"▁Brasil":4595,"▁físico":4596,"▁Tiene":4597,"ires":4598,"▁ase":4599,"echas":4600,"▁normas":4601,"▁UN":4602,"▁tantos":4603,"▁fondos":4604,"torias":4605,"▁Fu":4606,"▁convers":4607,"▁comentario":4608,"▁jueves":4609,"▁Muy":4610,"▁consecuencias":4611,"▁jard":4612,"▁argent":4613,"▁dije":4614,"▁Ella":4615,"▁volvió":4616,"▁Bel":4617,"erop":4618,"▁existencia":4619,"▁tren":4620,"▁Mus":4621,"▁realizó":4622,"▁pasada":4623,"▁vale":4624,"▁salió":4625,"▁hid":4626,"rador":4627,"▁perro":4628,"▁ministro":4629,"iego":4630,"▁entidad":4631,"▁indica":4632,"ues":4633,"▁clara":4634,"ices":4635,"▁ene":4636,"▁infec":4637,"▁daño":4638,"▁isla":4639,"illos":4640,"▁mantenimiento":4641,"▁planeta":4642,"▁premio":4643,"▁lóg":4644,"▁deberá":4645,"▁produce":4646,"EC":4647,"▁increíble":4648,"dic":4649,"▁fen":4650,"gram":4651,"▁río":4652,"▁zapa":4653,"▁prácticamente":4654,"▁ocul":4655,"▁frecuencia":4656,"▁somb":4657,"▁vidas":4658,"▁seres":4659,"ÓN":4660,"▁asu":4661,"▁excep":4662,"▁estructu":4663,"Si":4664,"dis":4665,"enes":4666,"▁código":4667,"▁quedan":4668,"▁sala":4669,"▁plantas":4670,"▁rob":4671,"▁religios":4672,"▁comienza":4673,"▁pilo":4674,"▁múlti":4675,"eren":4676,"talia":4677,"▁dispositivos":4678,"▁detalle":4679,"▁perió":4680,"▁condición":4681,"5.":4682,"AC":4683,"▁nacionales":4684,"▁hago":4685,"▁enfermedades":4686,"▁Aso":4687,"▁Ayuntamiento":4688,"▁recibido":4689,"▁adquirir":4690,"sen":4691,"▁moles":4692,"▁errores":4693,"ércoles":4694,"▁fortal":4695,"▁independiente":4696,"▁tales":4697,"▁agrad":4698,"▁depende":4699,"▁llamar":4700,"▁comunidades":4701,"cionados":4702,"▁contras":4703,"ég":4704,"▁flu":4705,"▁viendo":4706,"▁4.":4707,"▁esposa":4708,"▁resolución":4709,"▁sirve":4710,"▁abierto":4711,"▁consol":4712,"▁mantiene":4713,"▁ja":4714,"▁controlar":4715,"....":4716,"▁hue":4717,"iales":4718,"▁ves":4719,"▁aplicar":4720,"arición":4721,"▁cama":4722,"▁Vic":4723,"▁ge":4724,"▁perspec":4725,"▁firma":4726,"▁agreg":4727,"▁titular":4728,"pp":4729,"iro":4730,"▁ul":4731,"▁alo":4732,"▁confirm":4733,"▁IN":4734,"▁enlace":4735,"▁debate":4736,"▁pais":4737,"▁porcent":4738,"▁David":4739,"onato":4740,"▁costos":4741,"▁baño":4742,"uelos":4743,"▁probable":4744,"▁acog":4745,"dón":4746,"▁fres":4747,"mático":4748,"▁costo":4749,"▁Buenos":4750,"▁software":4751,"▁década":4752,"araciones":4753,"▁continuar":4754,"▁adecuado":4755,"▁reconocimiento":4756,"tio":4757,"ley":4758,"▁2,":4759,"rupción":4760,"▁some":4761,"ficaciones":4762,"rieron":4763,"leza":4764,"▁hábi":4765,"▁Europea":4766,"▁chicos":4767,"▁publicado":4768,"rup":4769,"▁síntom":4770,"▁cuentan":4771,"▁humana":4772,"▁90":4773,"▁juicio":4774,"▁archivos":4775,"▁evolución":4776,"▁ansi":4777,"▁sexo":4778,"edores":4779,"▁creado":4780,"▁fines":4781,"▁tradicional":4782,"▁involu":4783,"UE":4784,"▁Copa":4785,"▁cáncer":4786,"▁31":4787,"▁global":4788,"▁univers":4789,"▁dispositivo":4790,"▁acumul":4791,"▁agres":4792,"▁crim":4793,"▁españoles":4794,"▁trabaja":4795,"▁Tran":4796,"▁dieron":4797,"guez":4798,"▁asunto":4799,"vier":4800,"▁>":4801,"iendas":4802,"▁Policía":4803,"▁viajes":4804,"tillo":4805,"▁Sur":4806,"▁expec":4807,"venir":4808,"▁art":4809,"▁tuvieron":4810,"▁escena":4811,"▁colocar":4812,"tiago":4813,"▁plá":4814,"▁reconocer":4815,"▁estudiar":4816,"▁necesaria":4817,"eles":4818,"▁obliga":4819,"judi":4820,"▁siente":4821,"Te":4822,"ráfica":4823,"▁Do":4824,"▁hermanos":4825,"izado":4826,"▁capí":4827,"▁misión":4828,"▁estadounidense":4829,"▁ilum":4830,"▁Grupo":4831,"lamento":4832,"▁Ber":4833,"▁publicación":4834,"▁exposición":4835,"▁Venez":4836,"pol":4837,"▁ruta":4838,"▁Esa":4839,"▁aus":4840,"-19":4841,"▁responder":4842,"▁viajar":4843,"Al":4844,"▁descargar":4845,"▁guía":4846,"▁terreno":4847,"▁irre":4848,"grafías":4849,"▁Catal":4850,"▁máxima":4851,"▁70":4852,"▁convirtió":4853,"▁habilidades":4854,"▁propósito":4855,"▁ventajas":4856,"▁tengas":4857,"▁conexión":4858,"rael":4859,"▁adver":4860,"▁ofertas":4861,"▁identidad":4862,"▁hice":4863,"TO":4864,"▁espi":4865,"▁peligro":4866,"-2":4867,"▁EN":4868,"▁tocar":4869,"▁igu":4870,"▁explicar":4871,"▁próximos":4872,"▁médicos":4873,"▁Tom":4874,"▁motivos":4875,"▁logró":4876,"todos":4877,"TI":4878,"▁adultos":4879,"30":4880,"▁vienen":4881,"▁caer":4882,"?,":4883,"▁hacerse":4884,"▁objetos":4885,"ins":4886,"▁llu":4887,"▁Administ":4888,"▁comportamiento":4889,"▁Cub":4890,"ervi":4891,"▁comerci":4892,"▁conocida":4893,"quen":4894,"deros":4895,"▁positivo":4896,"▁fuertes":4897,"▁espal":4898,"rano":4899,"▁aclar":4900,"alizados":4901,"▁certific":4902,"▁John":4903,"▁Be":4904,"▁nombres":4905,"▁intercambi":4906,"ribunal":4907,"▁cuestiones":4908,"ave":4909,"▁quedar":4910,"▁celebrar":4911,"▁equivo":4912,"pl":4913,"▁parecía":4914,"lb":4915,"▁cerrar":4916,"▁conciencia":4917,"▁espíritu":4918,"▁asegura":4919,"▁raí":4920,"▁iglesia":4921,"ph":4922,"▁formato":4923,"tern":4924,"▁término":4925,"▁ast":4926,"▁acaba":4927,"bel":4928,"gencias":4929,"dimos":4930,"idor":4931,"▁Mac":4932,"gust":4933,"▁Mis":4934,"jor":4935,"▁relacionados":4936,"▁miércoles":4937,"▁quedado":4938,"▁aproximadamente":4939,"▁opiniones":4940,"▁vul":4941,"▁documentos":4942,"▁escon":4943,"▁rol":4944,"▁pros":4945,"rón":4946,"▁contigo":4947,"▁tuve":4948,"▁mira":4949,"▁exactamente":4950,"▁(19":4951,"ienes":4952,"▁esperanza":4953,"▁regular":4954,"▁29":4955,"▁Reino":4956,"ung":4957,"▁Ángel":4958,"▁requer":4959,"▁refiere":4960,"▁Sam":4961,"▁números":4962,"zando":4963,"▁caída":4964,"jal":4965,"▁mecan":4966,"▁unidades":4967,"▁cultural":4968,"▁mone":4969,"apón":4970,"tismo":4971,"égimen":4972,"▁Premi":4973,"▁conmigo":4974,"▁alqui":4975,"▁llen":4976,"▁conv":4977,"▁públicas":4978,"▁impresion":4979,"▁producir":4980,"▁martes":4981,"▁verde":4982,"▁expan":4983,"▁compras":4984,"▁Liga":4985,"▁tecnologías":4986,"▁Pat":4987,"▁orgul":4988,"onda":4989,"▁surg":4990,"▁típ":4991,"▁tendrán":4992,"ni":4993,"▁diciendo":4994,"▁Santiago":4995,"▁movimientos":4996,"lada":4997,"▁Incluso":4998,"teros":4999,"▁lech":5000,"▁Cristo":5001,"▁escas":5002,"▁contes":5003,"▁informó":5004,"▁expresión":5005,"▁archivo":5006,"▁@":5007,"▁progres":5008,"▁femen":5009,"▁lleno":5010,"jeros":5011,"cracia":5012,"▁voluntad":5013,"▁incluir":5014,"gando":5015,"▁aument":5016,"▁caja":5017,"▁fácilmente":5018,"▁secund":5019,"▁dro":5020,"▁artista":5021,"gal":5022,"▁afirma":5023,"▁escribió":5024,"▁crédito":5025,"▁tes":5026,"▁llevado":5027,"▁incluyendo":5028,"▁niñas":5029,"▁corte":5030,"▁eliminar":5031,"▁sencilla":5032,"▁britán":5033,"▁Bus":5034,"bili":5035,"▁Desarrol":5036,"cir":5037,"▁expon":5038,"amble":5039,"▁canal":5040,"▁conden":5041,"ombi":5042,"▁mover":5043,"itud":5044,"ear":5045,"▁mercados":5046,"▁Medi":5047,"▁Twitter":5048,"In":5049,"▁revista":5050,"▁paciente":5051,"▁mirada":5052,"▁ais":5053,"▁instalación":5054,"amo":5055,"idar":5056,"▁salv":5057,"▁recuperación":5058,"deras":5059,"8.":5060,"▁perfectamente":5061,"▁Venezuela":5062,"▁circunstancias":5063,"tente":5064,"▁genial":5065,"▁asistencia":5066,"▁actitud":5067,"▁fotografía":5068,"chez":5069,"▁legal":5070,"▁trá":5071,"mula":5072,"▁temperatura":5073,"▁compañías":5074,"▁suma":5075,"▁Mich":5076,"▁riesgos":5077,"▁coti":5078,"▁Qu":5079,"▁Jorge":5080,"crá":5081,"tilidad":5082,"▁cuesta":5083,"▁gras":5084,"ivamente":5085,"piración":5086,"▁necesarios":5087,"▁cita":5088,"▁Municip":5089,"later":5090,"▁Econ":5091,"▁ec":5092,"▁PP":5093,"ciaciones":5094,"▁tarjeta":5095,"iblio":5096,"▁ciertos":5097,"▁respuestas":5098,"ivas":5099,"▁dormir":5100,"▁2014":5101,"▁cielo":5102,"▁anal":5103,"▁belleza":5104,"▁institución":5105,"▁publicidad":5106,"▁registro":5107,"▁reciente":5108,"▁comprender":5109,"esión":5110,"▁Deb":5111,"▁actuación":5112,"▁virus":5113,"▁cuidad":5114,"▁superficie":5115,"▁concreto":5116,"▁malo":5117,"rimiento":5118,"▁presentó":5119,"▁quizá":5120,"▁apos":5121,"▁leyes":5122,"▁elemento":5123,"▁Tierra":5124,"udos":5125,"▁procedimiento":5126,"▁remo":5127,"▁catal":5128,"▁Hu":5129,"▁tendrás":5130,"▁dejo":5131,"▁Constitu":5132,"arca":5133,"▁plaza":5134,"▁crecer":5135,"▁recuperar":5136,"▁anunció":5137,"isten":5138,"▁inscri":5139,"▁múltiples":5140,"▁desapare":5141,"IA":5142,"▁Win":5143,"fía":5144,"▁recién":5145,"▁afirmó":5146,"▁Rom":5147,"bamos":5148,"▁segundos":5149,"▁tantas":5150,"leta":5151,"▁disc":5152,"ré":5153,"▁cort":5154,"▁capaces":5155,"ky":5156,"Lo":5157,"▁querido":5158,"▁playa":5159,"▁comunes":5160,"▁viven":5161,"adém":5162,"▁coronavirus":5163,"▁colección":5164,"▁breve":5165,"▁empieza":5166,"▁recorrido":5167,"▁XX":5168,"▁implic":5169,"tadores":5170,"▁diferencias":5171,"gular":5172,"▁mirar":5173,"▁Ste":5174,"▁alcance":5175,"▁pueblos":5176,"▁dul":5177,"misión":5178,"ube":5179,"vera":5180,"▁arran":5181,"▁Perú":5182,"▁camis":5183,"▁Vir":5184,"▁parque":5185,"▁café":5186,"%.":5187,"▁marketing":5188,"▁potencia":5189,"▁Estamos":5190,"▁robo":5191,"▁impuestos":5192,"▁Sr":5193,"ólogo":5194,"venida":5195,"▁formar":5196,"▁verdadero":5197,"▁Finalmente":5198,"tró":5199,"tillas":5200,"▁complicado":5201,"▁Fund":5202,"▁tráfico":5203,"▁entrenamiento":5204,"▁aprovechar":5205,"▁Casa":5206,"tam":5207,"▁prima":5208,"▁acostumb":5209,"6.":5210,"▁distribución":5211,"dición":5212,"▁aquello":5213,"▁cercan":5214,"aste":5215,"icción":5216,"quilla":5217,"▁adecuada":5218,"▁ben":5219,"arial":5220,"▁quisi":5221,"▁lenguaje":5222,"tista":5223,"▁gana":5224,"ológicos":5225,"gadas":5226,"▁relo":5227,"▁jamás":5228,"▁trayec":5229,"▁asoci":5230,"▁Muchos":5231,"▁tasa":5232,"tron":5233,"▁potencial":5234,"▁gobier":5235,"▁194":5236,"▁matrimonio":5237,"▁Tenemos":5238,"▁destacar":5239,"▁comerciales":5240,"▁artistas":5241,"▁esperando":5242,"▁cadena":5243,"▁luch":5244,"▁sede":5245,"▁indicó":5246,"▁volumen":5247,"▁Ram":5248,"▁expecta":5249,"uta":5250,"▁perfecta":5251,"▁aper":5252,"▁esfuerzos":5253,"iles":5254,"ang":5255,"▁enviar":5256,"▁Fernando":5257,"▁promedio":5258,"▁superar":5259,"▁urb":5260,"▁intervención":5261,"ualmente":5262,"▁Ali":5263,"▁ciertas":5264,"luencia":5265,"▁convertirse":5266,"olucion":5267,"7.":5268,"▁considerar":5269,"▁ingeni":5270,"▁pese":5271,"▁bru":5272,"▁judi":5273,"▁Mari":5274,"tí":5275,"▁nació":5276,"▁sucede":5277,"culación":5278,"pens":5279,"▁+":5280,"lbum":5281,"▁Ga":5282,"▁beneficio":5283,"▁perci":5284,"▁evaluación":5285,"▁desi":5286,"ane":5287,"▁sel":5288,"▁añadir":5289,"▁reforma":5290,"▁dificultades":5291,"▁Rusia":5292,"▁limpieza":5293,"▁reto":5294,"icaciones":5295,"▁clima":5296,"▁participantes":5297,"▁directa":5298,"▁llegan":5299,"▁cuestion":5300,"▁accidente":5301,"▁actuales":5302,"▁Pon":5303,"▁conflicto":5304,"▁alegría":5305,"máticas":5306,"▁Asociación":5307,"▁Japón":5308,"grama":5309,"esper":5310,"▁Comunidad":5311,"▁curios":5312,"ámica":5313,"▁duración":5314,"▁comienzo":5315,"▁convierte":5316,"▁bajar":5317,"▁Cruz":5318,"▁reducción":5319,"▁Gre":5320,"▁preguntar":5321,"▁enamor":5322,"▁dimen":5323,"▁venir":5324,"fon":5325,"▁consiste":5326,"ciencia":5327,"▁frío":5328,"eca":5329,"▁evidente":5330,"VID":5331,"▁minuto":5332,"▁Ol":5333,"inados":5334,"▁económicos":5335,"▁escuelas":5336,"▁honor":5337,"dedores":5338,"▁Clar":5339,"▁cierre":5340,"RE":5341,"dremos":5342,"▁tranquil":5343,"▁carne":5344,"▁500":5345,"▁formul":5346,"yendo":5347,"▁explor":5348,"▁enga":5349,"▁fom":5350,"▁cubier":5351,"orar":5352,"▁Aires":5353,"▁jurí":5354,"▁Partido":5355,"▁régimen":5356,"▁cursos":5357,"▁seguros":5358,"▁seguramente":5359,"▁teoría":5360,"▁Wil":5361,"estas":5362,"▁francés":5363,"▁estación":5364,"▁torno":5365,"we":5366,"!.":5367,"ánchez":5368,"ezca":5369,"nes":5370,"▁ech":5371,"usa":5372,"▁promoción":5373,"▁localidad":5374,"▁llena":5375,"▁piso":5376,"▁necesitar":5377,"▁decidir":5378,"▁acabar":5379,"▁Italia":5380,"▁actuar":5381,"tidas":5382,"▁bomb":5383,"▁municipal":5384,"▁implica":5385,"▁presentes":5386,"▁Bal":5387,"▁fenóm":5388,"▁síntomas":5389,"▁Nunca":5390,"▁chico":5391,"▁correr":5392,"ficientes":5393,"▁cabal":5394,"▁aceptar":5395,"▁proporcion":5396,"▁álbum":5397,"▁Organ":5398,"ive":5399,"metro":5400,"▁aceite":5401,"eropuerto":5402,"▁requisitos":5403,"▁Guerra":5404,"▁ciclo":5405,"▁parecen":5406,"▁inicial":5407,"▁alcalde":5408,"▁huel":5409,"eos":5410,"▁acuer":5411,"▁desen":5412,"▁Ana":5413,"▁conseguido":5414,"▁quiera":5415,"▁nuevamente":5416,"▁suces":5417,"▁regalo":5418,"▁Navidad":5419,"▁sorpresa":5420,"▁Norte":5421,"▁Hi":5422,"▁protes":5423,"erro":5424,"▁coste":5425,"▁Sánchez":5426,"▁toque":5427,"rés":5428,"▁sobrevi":5429,"▁analizar":5430,"▁entrenador":5431,"▁privado":5432,"gro":5433,"▁incluyen":5434,"▁renun":5435,"▁Hol":5436,"▁meta":5437,"▁recog":5438,"▁Unidas":5439,"▁estrategias":5440,"guar":5441,"▁definitiva":5442,"capacidad":5443,"▁deuda":5444,"▁artes":5445,"▁agentes":5446,"▁pidió":5447,"▁ital":5448,"villa":5449,"▁víctima":5450,"ueve":5451,"zados":5452,"▁protagonista":5453,"▁terminó":5454,"tible":5455,"taban":5456,"▁móviles":5457,"▁entidades":5458,"▁Espero":5459,"▁NO":5460,"▁académ":5461,"íguez":5462,"▁oposición":5463,"▁dejando":5464,"▁nutri":5465,"uf":5466,"▁resistencia":5467,"▁apartado":5468,"▁tera":5469,"▁cocin":5470,"uestros":5471,"▁únicamente":5472,"▁micro":5473,"▁etique":5474,"▁2013":5475,"▁destru":5476,"▁infantil":5477,"▁Recuer":5478,"▁similares":5479,"ísima":5480,"▁perros":5481,"▁proto":5482,"▁Cómo":5483,"▁Rodr":5484,"▁gestion":5485,"▁Naciones":5486,"▁Blan":5487,"tacular":5488,"▁comparación":5489,"timos":5490,"dimientos":5491,"▁Trump":5492,"▁compañero":5493,"▁liter":5494,"▁elev":5495,"estival":5496,"▁decidido":5497,"cador":5498,"OE":5499,"▁sosp":5500,"10":5501,"▁Ge":5502,"▁pensamiento":5503,"▁reglas":5504,"▁Sil":5505,"ity":5506,"▁rato":5507,"▁Soy":5508,"▁departamento":5509,"▁dra":5510,"▁muerto":5511,"▁Fis":5512,"▁utilizado":5513,"adá":5514,"▁utilizan":5515,"elas":5516,"▁torneo":5517,"▁Fuer":5518,"▁Fi":5519,"▁antiguo":5520,"▁involuc":5521,"ulo":5522,"%,":5523,"▁acel":5524,"▁ago":5525,"▁entregar":5526,"▁equip":5527,"▁ganó":5528,"ficiencia":5529,"▁leyendo":5530,"▁señala":5531,"▁administra":5532,"▁Rodríguez":5533,"tieron":5534,"▁sonri":5535,"▁serio":5536,"▁utilizando":5537,"▁inferior":5538,"▁pudiera":5539,"king":5540,"▁reca":5541,"ós":5542,"▁pac":5543,"mbol":5544,"chi":5545,"▁correcto":5546,"▁delan":5547,"▁cerebro":5548,"▁Qué":5549,"OL":5550,"quía":5551,"▁responsables":5552,"uebles":5553,"viendo":5554,"ublic":5555,"▁goles":5556,"abas":5557,"▁ign":5558,"▁autén":5559,"▁ejecución":5560,"donos":5561,"▁Club":5562,"▁Comité":5563,"let":5564,"▁2012":5565,"▁the":5566,"▁practi":5567,"▁oficiales":5568,"▁ilust":5569,"▁batalla":5570,"▁declaración":5571,"▁elig":5572,"▁flo":5573,"dados":5574,"▁meter":5575,"▁haces":5576,"▁estan":5577,"ime":5578,"roid":5579,"▁tej":5580,"▁autón":5581,"▁histórico":5582,"▁Cuba":5583,"▁195":5584,"▁aport":5585,"▁alimentación":5586,"▁emociones":5587,"▁hermana":5588,"▁Gonzá":5589,"▁culpa":5590,"▁sentimientos":5591,"▁Sen":5592,"osas":5593,"▁intento":5594,"▁usa":5595,"isiones":5596,"▁Vol":5597,"▁tendría":5598,"▁parecido":5599,"▁invierno":5600,"▁animal":5601,"▁Fernández":5602,"▁resca":5603,"inta":5604,"eña":5605,"tuales":5606,"ey":5607,"▁autoridad":5608,"▁deberían":5609,"▁gustado":5610,"▁buscan":5611,"▁gama":5612,"▁logrado":5613,"▁ganado":5614,"▁placer":5615,"▁aver":5616,"ló":5617,"cesa":5618,"▁bos":5619,"▁nueve":5620,"▁París":5621,"▁discip":5622,"▁auton":5623,"itan":5624,"coh":5625,"ianos":5626,"▁Inform":5627,"▁Hist":5628,"▁musical":5629,"tag":5630,"▁paque":5631,"▁diálogo":5632,"▁Pen":5633,"tig":5634,"▁repor":5635,"▁altos":5636,"▁nervi":5637,"smo":5638,"▁banco":5639,"▁Quer":5640,"▁González":5641,"▁frase":5642,"▁causas":5643,"▁suminist":5644,"▁36":5645,"vencia":5646,"▁espectacular":5647,"pira":5648,"▁permanente":5649,"▁Valencia":5650,"▁consulta":5651,"▁vacun":5652,"▁específic":5653,"▁mezcla":5654,"▁opti":5655,"▁Dos":5656,"▁cuáles":5657,"▁colegio":5658,"hat":5659,"caron":5660,"▁EE":5661,"▁Desarrollo":5662,"▁abierta":5663,"irá":5664,"▁contam":5665,"▁lengua":5666,"▁sueños":5667,"▁cambiado":5668,"▁rin":5669,"▁juz":5670,"▁León":5671,"▁métodos":5672,"oraciones":5673,"▁determinar":5674,"▁actor":5675,"▁acord":5676,"▁\"¿":5677,"tización":5678,"▁vein":5679,"▁vosotros":5680,"EL":5681,"▁tanta":5682,"▁fracas":5683,"▁Estudi":5684,"▁sabor":5685,"▁alternativa":5686,"▁gustan":5687,"▁mamá":5688,"▁usando":5689,"▁vulner":5690,"▁actos":5691,"▁funcionarios":5692,"▁aconse":5693,"▁organismo":5694,"frica":5695,"▁desea":5696,"▁lanzamiento":5697,"▁estren":5698,"edades":5699,"▁Podemos":5700,"▁ejercicios":5701,"▁votos":5702,"▁clín":5703,"▁Amazon":5704,"sar":5705,"▁cuento":5706,"endas":5707,"ade":5708,"▁cabello":5709,"itado":5710,"▁hin":5711,"▁piensa":5712,"▁Unido":5713,"▁abord":5714,"ag":5715,"anda":5716,"▁llegaron":5717,"▁domi":5718,"▁presentado":5719,"▁agregó":5720,"biendo":5721,"abe":5722,"▁necesarias":5723,"han":5724,"▁transpar":5725,"▁leche":5726,"▁puesta":5727,"▁reales":5728,"▁Cla":5729,"▁décadas":5730,"uctura":5731,"imi":5732,"▁batería":5733,"▁correcta":5734,"▁infraestr":5735,"▁llegue":5736,"▁urg":5737,"▁tari":5738,"▁list":5739,"▁fechas":5740,"▁aconte":5741,"▁asign":5742,"▁querer":5743,"▁partida":5744,"ili":5745,"▁servir":5746,"cón":5747,"▁amiga":5748,"▁anteriormente":5749,"▁respal":5750,"amblea":5751,"▁estrellas":5752,"▁silencio":5753,"▁porcentaje":5754,"▁5.":5755,"▁elegido":5756,"▁universidad":5757,"▁coo":5758,"▁cantante":5759,"▁amist":5760,"▁salvo":5761,"▁ocurrió":5762,"ash":5763,"carse":5764,"▁interesantes":5765,"▁descanso":5766,"▁factor":5767,"uña":5768,"▁leído":5769,"▁espectá":5770,"land":5771,"maras":5772,"▁Ofici":5773,"EM":5774,"pero":5775,"▁chicas":5776,"▁rojo":5777,"▁populares":5778,"wn":5779,"ham":5780,"▁cál":5781,"ristas":5782,"eración":5783,"ernas":5784,"▁americ":5785,"...)":5786,"puesta":5787,"tég":5788,"▁logra":5789,"formas":5790,"tamientos":5791,"augu":5792,"▁35":5793,"▁193":5794,"ondres":5795,"▁For":5796,"▁Nuestro":5797,"▁claramente":5798,"▁líderes":5799,"▁radic":5800,"▁hipo":5801,"▁tomó":5802,"ualidad":5803,"▁seguidores":5804,"▁vuelto":5805,"▁Civil":5806,"▁prohi":5807,"▁cuadro":5808,"▁vuelo":5809,"trol":5810,"▁atre":5811,"▁candidato":5812,"▁Han":5813,"▁coches":5814,"saciones":5815,"ht":5816,"▁rent":5817,"▁Aust":5818,"▁pasan":5819,"▁solicitar":5820,"▁recibe":5821,"▁extraordin":5822,"ks":5823,"▁montón":5824,"▁episo":5825,"▁idioma":5826,"▁Actualmente":5827,"pil":5828,"▁Justicia":5829,"▁suger":5830,"fre":5831,"▁defender":5832,"▁inspir":5833,"\"..":5834,"▁Nuestra":5835,"▁matar":5836,"▁ger":5837,"▁Lle":5838,"▁debía":5839,"rom":5840,"▁inaugu":5841,"din":5842,"▁mate":5843,"▁anunci":5844,"▁imper":5845,"▁periodista":5846,"▁demostrar":5847,"▁Vamos":5848,"▁dieta":5849,"▁3,":5850,"▁Nic":5851,"▁hablamos":5852,"▁preocupa":5853,"▁bienestar":5854,"quinas":5855,"uyó":5856,"▁contó":5857,"▁iniciar":5858,"▁colombi":5859,"▁peligros":5860,"▁esencial":5861,"▁fren":5862,"ruguay":5863,"▁boda":5864,"▁títulos":5865,"▁comunicado":5866,"alizó":5867,"▁Mes":5868,"cé":5869,"ándole":5870,"▁amplio":5871,"lon":5872,"▁perspectiva":5873,"▁cifra":5874,"▁Trans":5875,"olina":5876,"▁técnicos":5877,"▁aparecer":5878,"▁felicidad":5879,"▁Pé":5880,"ñado":5881,"▁resal":5882,"▁alcoh":5883,"▁daños":5884,"▁prést":5885,"▁Hemos":5886,"▁cho":5887,"▁300":5888,"▁denom":5889,"▁poca":5890,"rida":5891,"▁interac":5892,"▁impon":5893,"▁pienso":5894,"▁viejo":5895,"▁aliment":5896,"▁invertir":5897,"▁XV":5898,"▁Quiero":5899,"▁muestran":5900,"tones":5901,"▁Londres":5902,"▁ges":5903,"▁trato":5904,"ull":5905,"▁quím":5906,"▁Insta":5907,"▁catá":5908,"▁Ori":5909,"▁fantas":5910,"▁avión":5911,"▁solicitud":5912,"▁Gui":5913,"▁ubicación":5914,"▁gar":5915,"▁encontraba":5916,"▁necesitamos":5917,"▁agradable":5918,"▁cifras":5919,"▁enfoque":5920,"▁Segun":5921,"▁innovación":5922,"▁recientemente":5923,"▁discurso":5924,"▁Bien":5925,"▁generales":5926,"▁Mat":5927,"▁facilitar":5928,"▁bonito":5929,"▁personalidad":5930,"▁trabajan":5931,"dice":5932,"cionamiento":5933,"▁enseñanza":5934,"▁Bas":5935,"▁Hos":5936,"pera":5937,"▁correspondiente":5938,"▁observar":5939,"▁ON":5940,"▁Má":5941,"▁pide":5942,"▁declaraciones":5943,"▁comput":5944,"tú":5945,"▁celebración":5946,"▁estrés":5947,"▁morir":5948,"▁rostro":5949,"▁soporte":5950,"▁Fundación":5951,"▁realización":5952,"▁Ante":5953,"▁carretera":5954,"lano":5955,"▁aguas":5956,"istema":5957,"▁coord":5958,"▁tier":5959,"▁vincul":5960,"▁Person":5961,"▁Toda":5962,"▁espalda":5963,"abilidades":5964,"▁?":5965,"▁contiene":5966,"▁cár":5967,"▁cuel":5968,"CIÓN":5969,"▁preparar":5970,"▁peti":5971,"▁merece":5972,"▁mental":5973,"▁tono":5974,"▁Android":5975,"▁hagan":5976,"▁apara":5977,"▁bicicle":5978,"▁abre":5979,"▁atender":5980,"▁límite":5981,"▁preparación":5982,"▁gig":5983,"▁seguimiento":5984,"túa":5985,"▁pasión":5986,"▁destaca":5987,"▁muse":5988,"▁servid":5989,"quia":5990,"-,":5991,"vador":5992,"▁cumplimiento":5993,"▁ninguno":5994,"cula":5995,"▁abor":5996,"▁impul":5997,"▁Tele":5998,"cindi":5999,"▁Javier":6000,"▁sesiones":6001,"▁nu":6002,"teratura":6003,"cían":6004,"ster":6005,"▁teatro":6006,"▁fotografías":6007,"▁document":6008,"▁crítica":6009,"▁rival":6010,"▁conqui":6011,"▁&":6012,"quito":6013,"▁Españ":6014,"▁premios":6015,"201":6016,"apa":6017,"▁gobiernos":6018,"▁Men":6019,"▁Lin":6020,"▁moto":6021,"▁Web":6022,"▁asesina":6023,"▁Nosotros":6024,"):":6025,"▁camp":6026,"ela":6027,"▁apa":6028,"▁muchísimo":6029,"▁afecta":6030,"▁muertos":6031,"OM":6032,"▁aloj":6033,"▁influencia":6034,"▁humanidad":6035,"▁pantal":6036,"▁tradición":6037,"▁bio":6038,"▁maneras":6039,"▁identificar":6040,"▁Amb":6041,"BA":6042,"▁entreten":6043,"▁fiestas":6044,"UN":6045,"▁generalmente":6046,"▁toca":6047,"▁asesor":6048,"▁olvidar":6049,"▁encontró":6050,"▁bro":6051,"▁Uste":6052,"▁Instagram":6053,"▁igualdad":6054,"▁traer":6055,"ezas":6056,"usiones":6057,"▁rein":6058,"▁destacó":6059,"usos":6060,"▁efectivo":6061,"▁límites":6062,"gin":6063,"▁pus":6064,"▁arre":6065,"▁interesa":6066,"▁estados":6067,"▁máquina":6068,"▁gasto":6069,"▁You":6070,"▁visitas":6071,"▁murió":6072,"▁recomiendo":6073,"▁habita":6074,"ambre":6075,"▁aparecen":6076,"▁afron":6077,"▁electoral":6078,"▁estaría":6079,"▁imagin":6080,"▁profesores":6081,"▁Sevilla":6082,"adio":6083,"▁Pérez":6084,"▁ileg":6085,"▁permitirá":6086,"sal":6087,"dul":6088,"▁Dec":6089,"▁Espe":6090,"▁cientos":6091,"▁Az":6092,"ota":6093,"▁autores":6094,"▁conversación":6095,"▁ejemplos":6096,"▁exitos":6097,"▁apuesta":6098,"▁Tur":6099,"▁antigua":6100,"▁pieza":6101,"▁inmediato":6102,"▁complejo":6103,"ariz":6104,"▁PC":6105,"▁ahorrar":6106,"▁audio":6107,"▁envío":6108,"▁Ur":6109,"ctor":6110,"▁deba":6111,"▁retras":6112,"▁inteligencia":6113,"▁Domin":6114,"rente":6115,"▁conside":6116,"ánica":6117,"ilos":6118,"▁actores":6119,"▁Banco":6120,"▁empe":6121,"américa":6122,"▁quieras":6123,"▁activos":6124,"▁Guar":6125,"teo":6126,"cionalmente":6127,"irmar":6128,"▁pista":6129,"▁var":6130,"ense":6131,"▁reform":6132,"ionar":6133,"▁altas":6134,"▁comentó":6135,"▁ojo":6136,"▁realizan":6137,"ney":6138,"▁nacimiento":6139,"▁desplaz":6140,"▁Mic":6141,"▁comprobar":6142,"▁preocupación":6143,"▁humor":6144,"▁dejan":6145,"AP":6146,"▁expe":6147,"▁impresión":6148,"ames":6149,"lie":6150,"wa":6151,"▁apertura":6152,"▁Ejecu":6153,"ix":6154,"mail":6155,"▁guer":6156,"▁reda":6157,"▁reemp":6158,"▁Cono":6159,"▁plataformas":6160,"▁Af":6161,"▁juez":6162,"▁brazos":6163,"▁alter":6164,"elos":6165,"▁eficaz":6166,"▁consejo":6167,"To":6168,"▁preparado":6169,"▁pade":6170,"▁sú":6171,"▁dijeron":6172,"▁pobreza":6173,"cómo":6174,"▁Gab":6175,"int":6176,"▁Todas":6177,"▁videoj":6178,"bio":6179,"▁cartas":6180,"▁daba":6181,"▁2011":6182,"▁uni":6183,"ribe":6184,"▁individual":6185,"▁universi":6186,"IM":6187,"derá":6188,"▁expectativas":6189,"▁económicas":6190,"▁apoyar":6191,"▁suave":6192,"▁clásico":6193,"▁Les":6194,"▁pensado":6195,"▁consist":6196,"endaciones":6197,"▁estrella":6198,"Un":6199,"▁jugue":6200,"▁sho":6201,"▁despi":6202,"▁ensay":6203,"▁incremento":6204,"▁acre":6205,"▁pat":6206,"▁masa":6207,"▁pleno":6208,"▁bases":6209,"andro":6210,"▁flor":6211,"bios":6212,"siva":6213,"▁voto":6214,"▁UE":6215,"▁manifi":6216,"ister":6217,"▁razon":6218,"bos":6219,"ánico":6220,"▁viviendas":6221,"▁emergencia":6222,"▁representantes":6223,"dows":6224,"▁huev":6225,"éro":6226,"▁turismo":6227,"▁br":6228,"▁establece":6229,"úl":6230,"úcar":6231,"▁CON":6232,"▁cotidi":6233,"vesti":6234,"▁tradicionales":6235,"▁talento":6236,"▁Diego":6237,"▁TV":6238,"▁edificios":6239,"▁Red":6240,"▁echar":6241,"▁infin":6242,"▁botón":6243,"▁doctor":6244,"▁Andr":6245,"▁Mc":6246,"▁intelec":6247,"▁Trabajo":6248,"▁cole":6249,"▁embarazo":6250,"▁recomendable":6251,"▁Junta":6252,"▁plano":6253,"raron":6254,"▁Cer":6255,"▁indis":6256,"▁foro":6257,"ioso":6258,"tistas":6259,"tab":6260,"▁consumidores":6261,"▁decoración":6262,"▁científicos":6263,"▁cámaras":6264,"▁anual":6265,"▁regreso":6266,"▁consigue":6267,"▁podamos":6268,"▁piedra":6269,"▁cabe":6270,"óstico":6271,"IT":6272,"▁flores":6273,"lín":6274,"gor":6275,"▁2010":6276,"▁tru":6277,"▁ingre":6278,"▁secreto":6279,"▁alar":6280,"▁privada":6281,"ficación":6282,"▁posteriormente":6283,"▁democracia":6284,"▁100%":6285,"▁mul":6286,"ísticos":6287,"Las":6288,"▁Nin":6289,"▁km":6290,"▁lidera":6291,"▁consciente":6292,"▁argentino":6293,"ificado":6294,"ajo":6295,"▁enfrentar":6296,"▁actriz":6297,"▁accesor":6298,"▁pic":6299,"▁Villa":6300,"zz":6301,"Re":6302,"▁alternativas":6303,"▁COVID":6304,"▁enseñar":6305,"▁podían":6306,"▁abogado":6307,"PS":6308,"▁sole":6309,"▁escala":6310,"▁normalmente":6311,"▁carreras":6312,"▁dispuesto":6313,"▁retro":6314,"▁quitar":6315,"▁podremos":6316,"▁vigil":6317,"▁reuniones":6318,"mbo":6319,"lando":6320,"▁marido":6321,"▁ordenador":6322,"Yo":6323,"letas":6324,"cilio":6325,"inada":6326,"▁dará":6327,"▁Apple":6328,"mido":6329,"VA":6330,"▁estratég":6331,"▁Jul":6332,"▁sustitu":6333,"▁humil":6334,"▁Israel":6335,"entro":6336,"▁especies":6337,"▁prisión":6338,"▁pasaj":6339,"▁discipl":6340,"▁asociación":6341,"▁exces":6342,"▁exter":6343,"ciedad":6344,"▁deleg":6345,"▁Comp":6346,"▁hel":6347,"ándolo":6348,"▁lá":6349,"▁biblio":6350,"▁medic":6351,"▁Flor":6352,"itarios":6353,"▁insist":6354,"Que":6355,"erar":6356,"▁retir":6357,"▁apropi":6358,"▁arras":6359,"▁vice":6360,"ológicas":6361,"▁jud":6362,"▁Administración":6363,"pin":6364,"▁costa":6365,"▁priva":6366,"▁posee":6367,"▁inteligente":6368,"quez":6369,"▁Esper":6370,"▁corresponde":6371,"▁famoso":6372,"geno":6373,"▁Martínez":6374,"▁New":6375,"▁dios":6376,"▁felici":6377,"▁imprescindi":6378,"zadas":6379,"▁repi":6380,"jó":6381,"▁grad":6382,"▁refor":6383,"años":6384,"▁Daniel":6385,"▁inmi":6386,"lados":6387,"▁relacionadas":6388,"grantes":6389,"▁Santo":6390,"▁campeón":6391,"by":6392,"bert":6393,"▁Central":6394,"▁plena":6395,"▁cerv":6396,"▁Inicio":6397,"▁pretende":6398,"▁garantía":6399,"UR":6400,"▁videos":6401,"▁concurso":6402,"▁propiedades":6403,"▁Cámara":6404,"▁Ing":6405,"▁inqui":6406,"▁Fon":6407,"itán":6408,"enciales":6409,"▁emocional":6410,"▁visitantes":6411,"▁ilusión":6412,"▁versiones":6413,"▁termina":6414,"▁defec":6415,"▁Inf":6416,"▁virtual":6417,"▁gira":6418,"▁Ger":6419,"▁ine":6420,"▁pár":6421,"▁difíciles":6422,"▁vestido":6423,"500":6424,"▁Ed":6425,"▁Alej":6426,"▁jugando":6427,"▁cómodo":6428,"▁simul":6429,"▁llamadas":6430,"▁definir":6431,"cciones":6432,"pto":6433,"ille":6434,"▁cubrir":6435,"AT":6436,"▁sufrir":6437,"▁pude":6438,"▁seguido":6439,"▁capítulo":6440,"tres":6441,"▁creen":6442,"estre":6443,"▁aportar":6444,"▁iban":6445,"cura":6446,"▁desarrollado":6447,"▁corrupción":6448,"▁empu":6449,"▁Div":6450,"▁Depor":6451,"▁maestro":6452,"▁recomendaciones":6453,"duce":6454,"caba":6455,"▁guitar":6456,"▁críticas":6457,"▁tomado":6458,"cadas":6459,"▁Ast":6460,"▁Algunas":6461,"▁ayudas":6462,"hor":6463,"▁Bor":6464,"▁tratando":6465,"ume":6466,"▁Pala":6467,"▁Parece":6468,"▁investigadores":6469,"▁Puerto":6470,"menta":6471,"▁ventana":6472,"sivo":6473,"▁fl":6474,"▁aeropuerto":6475,"▁Escuela":6476,"▁adicional":6477,"abel":6478,"▁considerado":6479,"▁combinación":6480,"▁restaurante":6481,"icen":6482,"▁cau":6483,"▁diseños":6484,"▁expresó":6485,"arlos":6486,"▁dependiendo":6487,"stica":6488,"▁inversiones":6489,"▁Lor":6490,"▁entu":6491,"▁Dr":6492,"▁colum":6493,"▁educ":6494,"▁perm":6495,"▁pronun":6496,"▁Fre":6497,"▁ponen":6498,"▁inmediatamente":6499,"ambien":6500,"▁convoca":6501,"berg":6502,"▁equilibrio":6503,"▁avance":6504,"▁significado":6505,"▁prevención":6506,"▁representación":6507,"▁Jun":6508,"▁instruc":6509,"▁Edi":6510,"lle":6511,"▁continúa":6512,"▁perdió":6513,"▁secretario":6514,"presión":6515,"▁publicó":6516,"zgo":6517,"▁Alberto":6518,"▁aparición":6519,"▁VI":6520,"▁entiendo":6521,"▁viviendo":6522,"▁piernas":6523,"▁activo":6524,"tesis":6525,"tencias":6526,"▁Rev":6527,"▁́":6528,"▁activa":6529,"▁graves":6530,"▁prote":6531,"▁tendencias":6532,"▁cariño":6533,"▁trabajador":6534,"▁esperaba":6535,"▁copi":6536,"▁Jer":6537,"▁campos":6538,"izon":6539,"▁cercano":6540,"aya":6541,"▁luchar":6542,"▁quede":6543,"▁regiones":6544,"▁afirm":6545,"▁desin":6546,"▁listo":6547,"▁viento":6548,"▁coloc":6549,"▁llamó":6550,"▁lament":6551,"tima":6552,"▁gratuita":6553,"uma":6554,"▁incluido":6555,"▁combust":6556,"▁tomando":6557,"▁entradas":6558,"▁llevaba":6559,"▁Constitución":6560,"▁estarán":6561,"▁patr":6562,"▁digitales":6563,"uyen":6564,"tarlo":6565,"ridos":6566,"▁universo":6567,"tt":6568,"▁trim":6569,"▁informes":6570,"itor":6571,"▁sopor":6572,"▁agencia":6573,"▁proporcionar":6574,"▁0,":6575,"▁puntu":6576,"▁arma":6577,"▁presentan":6578,"▁Hern":6579,"US":6580,"▁establecido":6581,"▁cero":6582,"▁triste":6583,"▁novia":6584,"▁comisión":6585,"▁cuánto":6586,"icación":6587,"dería":6588,"▁promover":6589,"▁aventura":6590,"▁Alex":6591,"▁Bur":6592,"▁categorías":6593,"▁escritor":6594,"▁ejército":6595,"dígen":6596,"▁sugi":6597,"▁Neces":6598,"▁cambia":6599,"osofía":6600,"▁quedarse":6601,"▁denuncia":6602,"▁delito":6603,"▁Wi":6604,"▁deberán":6605,"▁porta":6606,"Quién":6607,"duras":6608,"▁carb":6609,"▁sacri":6610,"▁Mos":6611,"arra":6612,"▁efectu":6613,"▁decre":6614,"▁aj":6615,"▁conocidos":6616,"▁audiencia":6617,"▁automóvil":6618,"▁pene":6619,"▁45":6620,"cerdo":6621,"▁Trabaj":6622,"▁azúcar":6623,"▁militares":6624,"bra":6625,"ini":6626,"lament":6627,"▁podéis":6628,"▁balón":6629,"▁Windows":6630,"▁escolar":6631,"▁sof":6632,"▁colectivo":6633,"▁receta":6634,"▁cuidar":6635,"▁ayudan":6636,"IB":6637,"▁mostró":6638,"▁On":6639,"▁libres":6640,"▁clasificación":6641,"▁cober":6642,"órmula":6643,"▁prac":6644,"af":6645,"▁jardín":6646,"▁Allí":6647,"▁penal":6648,"▁inició":6649,"▁alemán":6650,"sias":6651,"▁curi":6652,"▁bolsa":6653,"cales":6654,"▁ataques":6655,"▁desay":6656,"▁Tanto":6657,"▁Ce":6658,"▁anuncio":6659,"▁forman":6660,"ueva":6661,"▁ps":6662,"▁dominio":6663,"▁Rafa":6664,"▁bancos":6665,"▁venido":6666,"▁ingreso":6667,"▁Parlamento":6668,"▁positiva":6669,"parte":6670,"▁sonrisa":6671,"▁Dirección":6672,"▁demostrado":6673,"▁fáb":6674,"▁definición":6675,"ego":6676,"▁noches":6677,"mun":6678,"▁conceptos":6679,"ure":6680,"▁eléctrica":6681,"▁Pri":6682,"▁gobernador":6683,"▁aparte":6684,"▁corta":6685,"gué":6686,"▁Tec":6687,"▁juega":6688,"▁ocupa":6689,"▁defens":6690,"terías":6691,"▁Lib":6692,"▁pobres":6693,"▁incen":6694,"▁previsto":6695,"▁acá":6696,"▁darse":6697,"▁básicos":6698,"▁Bla":6699,"▁Sub":6700,"jada":6701,"▁relacionado":6702,"▁revisión":6703,"▁criterios":6704,"▁diri":6705,"▁Def":6706,"▁licencia":6707,"▁textos":6708,"▁triunfo":6709,"Hay":6710,"▁componentes":6711,"▁suscri":6712,"▁mando":6713,"▁mapa":6714,"▁Leer":6715,"▁concur":6716,"▁extraño":6717,"órdo":6718,"▁fenómeno":6719,"▁absolutamente":6720,"▁manejo":6721,"▁Tribunal":6722,"ítica":6723,"▁firme":6724,"▁profundo":6725,"▁ausencia":6726,"posición":6727,"pla":6728,"▁acuerdos":6729,"▁posiciones":6730,"▁tierras":6731,"adura":6732,"▁abur":6733,"▁testimon":6734,"▁comentar":6735,"▁cuándo":6736,"▁ama":6737,"▁pil":6738,"▁pintura":6739,"▁eficiente":6740,"▁industrial":6741,"▁infancia":6742,"▁Fiscal":6743,"▁socio":6744,"ood":6745,"ny":6746,"▁lujo":6747,"▁Er":6748,"▁fantá":6749,"▁laborales":6750,"▁corriente":6751,"▁dices":6752,"ef":6753,"ráficos":6754,"▁agradecer":6755,"▁lluvia":6756,"▁tendremos":6757,"▁cooperación":6758,"▁financiera":6759,"▁observa":6760,"▁literatura":6761,"▁consultar":6762,"▁Atl":6763,"▁alcohol":6764,"ciden":6765,"▁AD":6766,"pular":6767,"▁peda":6768,"▁Bro":6769,"ude":6770,"▁llevo":6771,"▁privi":6772,"▁Comer":6773,"▁reserva":6774,"rate":6775,"▁Aún":6776,"timo":6777,"art":6778,"▁ayudará":6779,"▁Secretaría":6780,"cara":6781,"▁pecho":6782,"ertos":6783,"alizadas":6784,"▁punta":6785,"▁chil":6786,"▁PSOE":6787,"▁recurso":6788,"OD":6789,"▁Bu":6790,"▁difun":6791,"▁lla":6792,"ruido":6793,"▁XI":6794,"▁transformación":6795,"▁encontrarás":6796,"▁corpor":6797,"▁realizada":6798,"▁venez":6799,"▁alquiler":6800,"▁expor":6801,"▁Va":6802,"drán":6803,"▁Juegos":6804,"▁Univer":6805,"▁debo":6806,"▁restric":6807,"iga":6808,"▁aé":6809,"▁televis":6810,"▁divertido":6811,"▁margen":6812,"ionales":6813,"▁determinado":6814,"tara":6815,"▁Julio":6816,"▁cumpleaños":6817,"▁optimi":6818,"▁comprob":6819,"▁confes":6820,"desa":6821,"get":6822,"▁romper":6823,"ajaja":6824,"▁Usted":6825,"▁Liber":6826,"▁permita":6827,"▁Departamento":6828,"ld":6829,"▁vín":6830,"▁resuel":6831,"▁esque":6832,"▁correctamente":6833,"ventud":6834,"▁basado":6835,"▁Nuevo":6836,"▁dificultad":6837,"IL":6838,"▁reloj":6839,"▁desgra":6840,"▁Dar":6841,"▁facilidad":6842,"▁gor":6843,"pañas":6844,"▁descuento":6845,"▁Primero":6846,"ionado":6847,");":6848,"▁Río":6849,"▁hosp":6850,"▁obligación":6851,"▁descubier":6852,"▁32":6853,"▁fundamentales":6854,"▁satisfacción":6855,"▁equival":6856,"▁fol":6857,"▁oficinas":6858,"▁autob":6859,"▁mexicano":6860,"-0":6861,"▁usan":6862,"migos":6863,"▁asc":6864,"▁habló":6865,"▁evidencia":6866,"▁montaña":6867,"▁discrim":6868,"▁árboles":6869,"▁polici":6870,"▁Roma":6871,"▁haci":6872,"▁Mejor":6873,"▁reme":6874,"oras":6875,"Cuál":6876,"▁pensamientos":6877,"▁ruido":6878,"cadores":6879,"▁canales":6880,"unda":6881,"▁cans":6882,"IF":6883,"▁Padre":6884,"▁pared":6885,"▁empa":6886,"CO":6887,"▁candidatos":6888,"▁id":6889,"▁vital":6890,"zcan":6891,"▁siguiendo":6892,"▁deriv":6893,"▁actualización":6894,"▁ocurrido":6895,"▁Primera":6896,"▁Federal":6897,"▁ponerse":6898,"▁impar":6899,"▁afectados":6900,"▁consiguió":6901,"▁olvi":6902,"▁tabla":6903,"▁Corte":6904,"▁dedicado":6905,"▁homen":6906,"▁vídeos":6907,"▁reper":6908,"idu":6909,"▁later":6910,"▁investigaciones":6911,"ficar":6912,"▁venezol":6913,"▁empie":6914,"▁piloto":6915,"▁previa":6916,"▁mág":6917,"▁metro":6918,"▁examen":6919,"▁ciudadanía":6920,"▁AM":6921,"▁necesito":6922,"▁reacción":6923,"▁tiro":6924,"▁terminado":6925,"▁Aut":6926,"ónico":6927,"éramos":6928,"▁estudiante":6929,"▁democrá":6930,"▁lectores":6931,"▁lector":6932,"▁mod":6933,"▁extranjero":6934,"▁descen":6935,"▁letras":6936,"▁denomin":6937,"gador":6938,"▁Gol":6939,"vie":6940,"▁imaginar":6941,"▁Córdo":6942,"iosa":6943,"▁discusión":6944,"▁luces":6945,"▁Investi":6946,"▁estatu":6947,"▁declaró":6948,"▁socios":6949,"▁caminar":6950,"Ten":6951,"▁Ka":6952,"▁series":6953,"▁dejamos":6954,"dicos":6955,"utas":6956,"▁publicar":6957,"▁Bri":6958,"laterra":6959,"▁integración":6960,"▁Sch":6961,"▁cuello":6962,"▁profundidad":6963,"▁Mira":6964,"▁tensión":6965,"▁vuestra":6966,"▁oído":6967,"izada":6968,"aso":6969,"▁salvar":6970,"▁Costa":6971,"▁design":6972,"▁4,":6973,"▁sacerdo":6974,"▁adolescentes":6975,"inal":6976,"cialmente":6977,"up":6978,"ganos":6979,"▁reh":6980,"▁avanzar":6981,"▁aprobación":6982,"▁Asamblea":6983,"▁calend":6984,"▁Mad":6985,"▁domicilio":6986,"▁Serg":6987,"▁perjudi":6988,"▁agen":6989,"▁Museo":6990,"▁acor":6991,"▁capacidades":6992,"depen":6993,"▁cuerpos":6994,"▁delic":6995,"istro":6996,"▁factura":6997,"▁conclusión":6998,"▁masco":6999,"▁ansiedad":7000,"▁Wal":7001,"▁banc":7002,"ipe":7003,"estión":7004,"▁financiación":7005,"▁regresar":7006,"▁teníamos":7007,"yen":7008,"▁recuerdos":7009,"▁Andrés":7010,"▁asuntos":7011,"▁millón":7012,"▁bajos":7013,"▁salido":7014,"▁seleccion":7015,"▁Sig":7016,"▁País":7017,"▁mascul":7018,"▁Servicio":7019,"▁campañas":7020,"▁aden":7021,"▁ocupar":7022,"▁Quizás":7023,"▁amenaza":7024,"▁reconoce":7025,"stos":7026,"▁extremo":7027,"▁distinto":7028,"▁constantemente":7029,"▁muebles":7030,"▁CE":7031,"▁ofen":7032,"▁Mel":7033,"isa":7034,"▁movilidad":7035,"▁Algo":7036,"▁desas":7037,"▁plantilla":7038,"Pero":7039,"▁vistas":7040,"▁Enrique":7041,"▁Andalu":7042,"▁repetir":7043,"▁contamos":7044,"▁;":7045,"▁raíz":7046,"▁espectáculo":7047,"PA":7048,"▁profesión":7049,"▁tranquilidad":7050,"▁lesiones":7051,"▁hambre":7052,"▁procedimientos":7053,"ritual":7054,"▁habido":7055,"▁labora":7056,"▁ic":7057,"▁ignor":7058,"▁Bra":7059,"▁rique":7060,"80":7061,"▁saludable":7062,"▁puerto":7063,"▁Pens":7064,"▁hojas":7065,"▁instrumentos":7066,"▁empresarial":7067,"▁recomendamos":7068,"▁vías":7069,"▁indígen":7070,"▁novedades":7071,"▁injust":7072,"▁bajas":7073,"▁estatal":7074,"ómico":7075,"▁ánimo":7076,"▁paro":7077,"▁puente":7078,"Des":7079,"ju":7080,"▁regional":7081,"CA":7082,"▁tambien":7083,"▁Otros":7084,"▁depó":7085,"▁blanca":7086,"▁camin":7087,"▁permitió":7088,"ting":7089,"▁agar":7090,"▁Paz":7091,"▁reempla":7092,"▁Ellos":7093,"▁permiso":7094,"tificación":7095,"▁veía":7096,"▁pendiente":7097,"▁municipios":7098,"▁eficiencia":7099,"▁salen":7100,"▁conces":7101,"▁Existen":7102,"xiones":7103,"▁numerosos":7104,"▁utilización":7105,"▁Mujer":7106,"▁War":7107,"▁aumenta":7108,"▁madres":7109,"▁plane":7110,"▁ahorro":7111,"▁Acu":7112,"uera":7113,"▁abri":7114,"▁fuese":7115,"▁hablan":7116,"▁intensidad":7117,"▁6.":7118,"▁malos":7119,"▁conductor":7120,"▁instalar":7121,"▁semi":7122,"ant":7123,"▁diagn":7124,"▁podríamos":7125,"rana":7126,"▁circui":7127,"▁Mur":7128,"▁polém":7129,"dy":7130,"▁Inglaterra":7131,"▁moral":7132,"▁acompañado":7133,"terrán":7134,"▁conferencia":7135,"▁dom":7136,"manes":7137,"▁Cá":7138,"▁Elec":7139,"▁manual":7140,"▁exceso":7141,"apones":7142,"icho":7143,"▁Cual":7144,"▁notas":7145,"▁hubiese":7146,"TR":7147,"▁Federación":7148,"▁Van":7149,"▁sentencia":7150,"▁agric":7151,"▁ater":7152,"▁protagonistas":7153,"▁ascen":7154,"▁visual":7155,"▁dientes":7156,"bla":7157,"▁Mundo":7158,"erse":7159,"▁despa":7160,"▁llegando":7161,"40":7162,"▁esperan":7163,"▁mío":7164,"▁infraestructura":7165,"vias":7166,"▁extrem":7167,"▁Provin":7168,"▁contratos":7169,"▁ingredientes":7170,"▁cuidados":7171,"▁telef":7172,"▁restaurantes":7173,"▁prevenir":7174,"ds":7175,"uena":7176,"▁Ejecutivo":7177,"▁Córdoba":7178,"▁Plaza":7179,"▁parejas":7180,"incu":7181,"tol":7182,"ferencias":7183,"▁judicial":7184,"▁absor":7185,"▁Cataluña":7186,"cro":7187,"▁culp":7188,"▁trayectoria":7189,"▁comodidad":7190,"▁recomienda":7191,"▁Fal":7192,"▁actuaciones":7193,"▁char":7194,"▁tarjetas":7195,"▁empresarios":7196,"▁panor":7197,"▁integral":7198,"▁metodo":7199,"??":7200,"▁vit":7201,"ington":7202,"▁cárcel":7203,"▁Ál":7204,"▁modos":7205,"▁compens":7206,"▁homenaje":7207,"▁transmisión":7208,"bur":7209,"▁impe":7210,"▁pagos":7211,"▁Ir":7212,"▁impuesto":7213,"▁grasa":7214,"▁organizar":7215,"▁Debido":7216,"idación":7217,"▁crees":7218,"▁Bre":7219,"▁concentración":7220,"▁especialistas":7221,"▁desn":7222,"▁Mario":7223,"▁2008":7224,"▁fib":7225,"▁deseas":7226,"▁cargos":7227,"fal":7228,"ólogos":7229,"▁fabricación":7230,"▁extensión":7231,"▁Ima":7232,"▁homb":7233,"▁hayas":7234,"▁culturales":7235,"▁pensé":7236,"rían":7237,"▁periodistas":7238,"▁nación":7239,"▁conflictos":7240,"▁2009":7241,"▁econom":7242,"▁hoteles":7243,"▁específico":7244,"▁mencionar":7245,"▁realizando":7246,"tral":7247,"▁avances":7248,"▁ubicado":7249,"cademia":7250,"camos":7251,"▁renov":7252,"▁Bos":7253,"▁dichos":7254,"▁plástico":7255,"▁europeos":7256,"▁cha":7257,"▁considerable":7258,"▁guardar":7259,"▁trae":7260,"▁concierto":7261,"venciones":7262,"▁médica":7263,"riel":7264,"▁Organización":7265,"▁amistad":7266,"iforn":7267,"▁elaboración":7268,"▁absoluto":7269,"▁Hospital":7270,"▁habitaciones":7271,"dador":7272,"▁dirigido":7273,"▁revisar":7274,"vangel":7275,"▁requieren":7276,"▁gustó":7277,"ilo":7278,"▁Bea":7279,"▁lad":7280,"▁sexuales":7281,"▁división":7282,"imnas":7283,"▁cató":7284,"▁eléctrico":7285,"▁permitido":7286,"▁hogares":7287,"▁establecimiento":7288,"ñez":7289,"▁marcar":7290,"▁coordin":7291,"▁artifici":7292,"▁revolución":7293,"▁abrazo":7294,"▁apareció":7295,"tornos":7296,"tología":7297,"▁claves":7298,"▁vuelos":7299,"▁manejar":7300,"▁franqui":7301,"▁Br":7302,"▁Char":7303,"▁reflexión":7304,"▁resumen":7305,"▁mejoras":7306,"▁lanzar":7307,"▁Sé":7308,"▁entiende":7309,"▁corp":7310,"▁Dipu":7311,"▁guste":7312,"▁vuestro":7313,"áticamente":7314,"▁encen":7315,"▁reconocido":7316,"▁efectiva":7317,"▁máquinas":7318,"▁agregar":7319,"▁útiles":7320,"licos":7321,"▁botel":7322,"▁representante":7323,"▁proporciona":7324,"▁trabajado":7325,"onal":7326,"▁accesorios":7327,"▁Ara":7328,"igo":7329,"pic":7330,"▁anuncios":7331,"▁explos":7332,"▁discapacidad":7333,"▁joy":7334,"▁pierde":7335,"gano":7336,"ites":7337,"▁zapatos":7338,"▁restos":7339,"ídos":7340,"▁comenzaron":7341,"▁demasi":7342,"cán":7343,"lico":7344,"▁Vil":7345,"▁entusias":7346,"▁serían":7347,"▁plen":7348,"▁invent":7349,"▁gir":7350,"▁siglos":7351,"▁apel":7352,"▁transmitir":7353,"▁encab":7354,"▁Vo":7355,"cedentes":7356,"▁basada":7357,"▁celebra":7358,"▁caliente":7359,"▁Dentro":7360,"▁vivido":7361,"▁implan":7362,"▁figuras":7363,"▁horizon":7364,"▁raro":7365,"▁letra":7366,"▁espiritual":7367,"▁barato":7368,"cioso":7369,"▁drogas":7370,"▁costes":7371,"▁fij":7372,"▁paredes":7373,"fos":7374,"▁súper":7375,"▁consta":7376,"▁cuantos":7377,"▁legislación":7378,"▁residencia":7379,"▁bras":7380,"▁señales":7381,"guna":7382,"▁cami":7383,"▁creatividad":7384,"quin":7385,"▁saludo":7386,"▁excepción":7387,"▁interpretación":7388,"▁Valle":7389,"ución":7390,"▁turno":7391,"▁iniciativas":7392,"▁Tri":7393,"sticos":7394,"▁orgullos":7395,"UU":7396,"▁191":7397,"hib":7398,"▁papá":7399,"▁salón":7400,"▁dato":7401,"▁estric":7402,"▁veremos":7403,"▁rema":7404,"▁antiguos":7405,"▁ree":7406,"▁diseñado":7407,"mal":7408,"▁religión":7409,"dían":7410,"▁liga":7411,"▁hecha":7412,"▁fueran":7413,"▁damos":7414,"▁Alejandro":7415,"▁Álvar":7416,"▁divis":7417,"▁conforme":7418,"▁Arm":7419,"▁Pl":7420,"mej":7421,"▁independencia":7422,"▁pudieron":7423,"▁relato":7424,"▁educativo":7425,"▁nacido":7426,"▁apuestas":7427,"▁ingles":7428,"▁sentimiento":7429,"▁completar":7430,"▁Nada":7431,"▁Play":7432,"▁Jim":7433,"▁barco":7434,"▁numerosas":7435,"▁legales":7436,"cero":7437,"▁cobertura":7438,"erda":7439,"▁paseo":7440,"▁Derechos":7441,"pado":7442,"rones":7443,"▁Oc":7444,"▁brindar":7445,"▁cayó":7446,"▁horario":7447,"domin":7448,"Le":7449,"▁Latina":7450,"▁hábitos":7451,"▁abrió":7452,"▁malas":7453,"▁prepara":7454,"▁enlaces":7455,"▁gracia":7456,"▁Em":7457,"▁Premio":7458,"▁poniendo":7459,"▁combate":7460,"▁seg":7461,"▁dispone":7462,"▁Sud":7463,"▁explicación":7464,"▁Proyec":7465,"▁profunda":7466,"▁funcionar":7467,"▁África":7468,"▁invitados":7469,"gica":7470,"yn":7471,"▁dosis":7472,"▁contratar":7473,"▁operativo":7474,"▁intenta":7475,"▁sentía":7476,"▁gl":7477,"cien":7478,"▁ruedas":7479,"▁rodi":7480,"▁€":7481,"▁·":7482,"▁pareció":7483,"▁trimestre":7484,"▁encargado":7485,"▁conveniente":7486,"▁señora":7487,"americano":7488,"▁acudir":7489,"▁400":7490,"▁quedaron":7491,"▁techo":7492,"▁sujeto":7493,"▁deportivo":7494,"blo":7495,"▁Ric":7496,"▁retra":7497,"▁asumir":7498,"▁dulce":7499,"▁escoger":7500,"resas":7501,"LO":7502,"▁originales":7503,"americana":7504,"▁creciendo":7505,"▁AC":7506,"legios":7507,"▁filosofía":7508,"itarias":7509,"▁frust":7510,"▁estadio":7511,"▁quiso":7512,"▁pasajeros":7513,"▁intentando":7514,"ulares":7515,"III":7516,"▁parar":7517,"▁Edu":7518,"▁competencias":7519,"▁conducir":7520,"▁usado":7521,"ters":7522,"▁instante":7523,"▁Campe":7524,"▁suficientemente":7525,"▁financiero":7526,"▁magia":7527,"▁documentación":7528,"▁legisla":7529,"▁frases":7530,"ortunadamente":7531,"MS":7532,"▁Audi":7533,"▁propa":7534,"garse":7535,"▁evaluar":7536,"▁estabilidad":7537,"▁India":7538,"medi":7539,"▁atractivo":7540,"▁básico":7541,"denes":7542,"▁urban":7543,"LA":7544,"▁solar":7545,"▁Pin":7546,"▁produci":7547,"▁alf":7548,"▁rutina":7549,"▁lados":7550,"▁felices":7551,"▁dedicar":7552,"▁CD":7553,"fera":7554,"▁incom":7555,"▁aplica":7556,"▁seleccionar":7557,"▁interno":7558,"▁hablado":7559,"▁aguan":7560,"alizaciones":7561,"▁dueño":7562,"▁Profes":7563,"▁turistas":7564,"cionalidad":7565,"▁intercambio":7566,"▁Noti":7567,"▁conocen":7568,"▁permanecer":7569,"▁muñ":7570,"▁prov":7571,"▁plato":7572,"▁veter":7573,"▁tuvimos":7574,"▁192":7575,"▁produjo":7576,"▁satisfa":7577,"▁cen":7578,"▁detener":7579,"▁doy":7580,"▁Medio":7581,"▁adicionales":7582,"▁arena":7583,"▁calendario":7584,"▁grados":7585,"▁bols":7586,"ller":7587,"▁Plata":7588,"mple":7589,"▁menú":7590,"▁protec":7591,"▁Cur":7592,"▁Sim":7593,"vela":7594,"▁municipales":7595,"An":7596,"▁Claro":7597,"▁lider":7598,"▁inspec":7599,"▁quisiera":7600,"▁emoción":7601,"usta":7602,"▁federal":7603,"▁pelic":7604,"Para":7605,"grado":7606,"ína":7607,"▁consideran":7608,"▁Tampoco":7609,"tz":7610,"▁demuestra":7611,"-3":7612,"▁sentirse":7613,"▁enferm":7614,"▁iluminación":7615,"▁arquitectura":7616,"▁coger":7617,"▁tratamientos":7618,"▁Segunda":7619,"▁instrumento":7620,"▁manifestó":7621,"jera":7622,"élulas":7623,"?\"":7624,"▁finalidad":7625,"▁provocar":7626,"▁haría":7627,"▁cm":7628,"▁confun":7629,"▁desap":7630,"▁previo":7631,"arle":7632,"▁150":7633,"▁recoger":7634,"▁conocemos":7635,"▁estadounidenses":7636,"▁Form":7637,"sin":7638,"▁definitivamente":7639,"▁platos":7640,"▁relaj":7641,"▁electri":7642,"▁subra":7643,"▁haz":7644,"▁portal":7645,"▁multitud":7646,"▁sumar":7647,"▁estima":7648,"▁proveedores":7649,"▁suficientes":7650,"▁basa":7651,"▁competición":7652,"▁ador":7653,"▁Salvador":7654,"▁detenido":7655,"▁neu":7656,"▁temporal":7657,"▁(3":7658,"▁campeonato":7659,"Cuán":7660,"▁experto":7661,"▁europeo":7662,"▁sospech":7663,"▁probado":7664,"▁particulares":7665,"▁Lea":7666,"eso":7667,"▁Star":7668,"▁siga":7669,"▁cien":7670,"▁pelota":7671,"▁suyo":7672,"▁Vis":7673,"▁cicl":7674,"▁apas":7675,"▁contag":7676,"▁adaptación":7677,"mores":7678,"▁superiores":7679,"vales":7680,"▁estuvieron":7681,"▁tol":7682,"▁abund":7683,"▁cog":7684,"▁mirando":7685,"▁asistir":7686,"▁talleres":7687,"▁Cambi":7688,"▁Fil":7689,"▁científico":7690,"▁practicar":7691,"▁choc":7692,"▁organismos":7693,"▁mag":7694,"tría":7695,"▁Consul":7696,"▁verlo":7697,"amá":7698,"▁Municipal":7699,"▁bicicleta":7700,"▁cirug":7701,"▁inn":7702,"camiento":7703,"▁celular":7704,"▁esencia":7705,"uría":7706,"tógraf":7707,"▁criti":7708,"uyendo":7709,"▁programación":7710,"IO":7711,"grad":7712,"inadas":7713,"▁Somos":7714,"éticos":7715,"▁resultar":7716,"▁pensaba":7717,"▁bom":7718,"▁catálogo":7719,"aunque":7720,"▁propone":7721,"▁hí":7722,"▁decide":7723,"▁monitor":7724,"▁autos":7725,"▁diversidad":7726,"ándome":7727,"▁Dist":7728,"▁añadió":7729,"▁caminos":7730,"garon":7731,"▁Net":7732,"▁increment":7733,"▁producen":7734,"acto":7735,"▁balance":7736,"▁deseos":7737,"Sab":7738,"▁derrota":7739,"▁volv":7740,"mado":7741,"▁encuesta":7742,"cemos":7743,"▁respondió":7744,"▁finalizar":7745,"▁acredi":7746,"▁rei":7747,"▁sienten":7748,"▁Programa":7749,"▁cír":7750,"DE":7751,"▁salario":7752,"aremos":7753,"Ha":7754,"▁seria":7755,"▁diga":7756,"▁obtuvo":7757,"▁paquete":7758,"▁Seguro":7759,"▁indicar":7760,"dri":7761,"▁prestig":7762,"▁complement":7763,"bes":7764,"▁agente":7765,"▁tranquilo":7766,"▁transpor":7767,"ísimas":7768,"cenas":7769,"▁conozco":7770,"▁metas":7771,"▁Felipe":7772,"▁regla":7773,"▁cance":7774,"▁organizado":7775,"rimir":7776,"tróleo":7777,"▁levantar":7778,"▁Estaba":7779,"▁imprescindible":7780,"Pue":7781,"▁vea":7782,"▁33":7783,"▁hicimos":7784,"▁colon":7785,"▁sigo":7786,"▁referente":7787,"▁igualmente":7788,"▁Zara":7789,"cultad":7790,"glesias":7791,"▁Tecn":7792,"▁EEUU":7793,"adal":7794,"▁escla":7795,"rosoft":7796,"▁temprano":7797,"▁células":7798,"▁delitos":7799,"▁beso":7800,"▁creó":7801,"▁polic":7802,"écord":7803,"▁docentes":7804,"▁planificación":7805,"▁retos":7806,"▁producido":7807,"▁trist":7808,"MA":7809,"▁Ví":7810,"▁harán":7811,"▁inmo":7812,"▁metal":7813,"▁mediados":7814,"▁tercero":7815,"▁moneda":7816,"ritos":7817,"▁pag":7818,"▁ganador":7819,"▁llaman":7820,"▁integrantes":7821,"▁paciencia":7822,"▁silla":7823,"ifornia":7824,"▁cantidades":7825,"-.":7826,"▁delici":7827,"▁etapas":7828,"▁creando":7829,"▁verse":7830,"ómez":7831,"▁financieros":7832,"▁asal":7833,"▁5,":7834,"▁maestros":7835,"Po":7836,"▁dign":7837,"▁insu":7838,"▁histórica":7839,"vida":7840,"▁cuarta":7841,"▁entró":7842,"▁prioridad":7843,"abora":7844,"▁sufrido":7845,"▁fans":7846,"mu":7847,"▁quieran":7848,"▁cone":7849,"▁Bern":7850,"▁Díaz":7851,"▁poquito":7852,"▁apla":7853,"▁estándar":7854,"▁emocion":7855,"▁sindica":7856,"cita":7857,"▁dedos":7858,"▁estancia":7859,"sec":7860,"▁Sergio":7861,"ah":7862,"▁estés":7863,"▁periódico":7864,"▁fuimos":7865,"▁Air":7866,"▁ende":7867,"aman":7868,"▁oración":7869,"iversario":7870,"▁Sigui":7871,"▁Parque":7872,"tidu":7873,"▁limpiar":7874,"▁Cultura":7875,"▁farma":7876,"▁aporta":7877,"ager":7878,"▁medicamentos":7879,"▁7.":7880,"▁ox":7881,"▁barra":7882,"orán":7883,"▁Historia":7884,".)":7885,"▁gustos":7886,"▁asesinato":7887,"▁acabado":7888,"lix":7889,"▁desempeño":7890,"▁recientes":7891,"▁generaciones":7892,"tables":7893,"▁Jack":7894,"▁org":7895,"▁look":7896,"▁lanzó":7897,"lum":7898,"▁Andalucía":7899,"▁listas":7900,"▁rock":7901,"▁invers":7902,"▁incu":7903,"▁repos":7904,"▁vistazo":7905,"▁bonita":7906,"▁extranjeros":7907,"▁configuración":7908,"▁app":7909,"▁plazas":7910,"taje":7911,"CE":7912,"▁tratado":7913,"▁flujo":7914,"▁Mag":7915,"▁obstá":7916,"Mi":7917,"▁distrib":7918,"▁hubier":7919,"▁Ecu":7920,"iera":7921,"menes":7922,"ys":7923,"▁comprensión":7924,"▁Sistema":7925,"▁lógica":7926,"▁vivimos":7927,"▁Dig":7928,"▁japones":7929,"▁continua":7930,"▁alej":7931,"ragón":7932,"▁ronda":7933,"voz":7934,"laga":7935,"▁negativo":7936,"▁gestionar":7937,"▁embar":7938,"▁Dra":7939,"▁distinta":7940,"▁rico":7941,"▁esposo":7942,"▁rango":7943,"▁conectar":7944,"uestras":7945,"▁sufrió":7946,"▁negra":7947,"cipe":7948,"▁productores":7949,"▁Pública":7950,"▁cerem":7951,"▁convocatoria":7952,"▁uniform":7953,"▁característica":7954,"▁acabó":7955,"▁polvo":7956,"▁portá":7957,"▁vib":7958,"▁excu":7959,"▁párra":7960,"▁Presiden":7961,"▁combatir":7962,"▁garantiz":7963,"dras":7964,"▁brillante":7965,"60":7966,"▁cambió":7967,"▁Uruguay":7968,"▁tengamos":7969,"tedr":7970,"▁dejaron":7971,"▁brasile":7972,"▁ficción":7973,"▁llevaron":7974,"▁rueda":7975,"▁petición":7976,"▁Foto":7977,"▁existentes":7978,"ij":7979,"▁totalidad":7980,"▁maravilloso":7981,"▁veinte":7982,"▁incluidos":7983,"Nos":7984,"▁Europeo":7985,"▁Había":7986,"▁mínima":7987,"▁Covid":7988,"rista":7989,"▁sól":7990,"▁formado":7991,"▁Tener":7992,"▁enemigo":7993,"▁)":7994,"colo":7995,"▁Microsoft":7996,"▁tr":7997,"▁cobrar":7998,"▁pendientes":7999,"▁curiosidad":8000,"▁esperamos":8001,"▁utilidad":8002,"▁agenda":8003,"Com":8004,"strucción":8005,"▁publici":8006,"▁tuviera":8007,"▁continú":8008,"▁What":8009,"▁habilidad":8010,"▁semil":8011,"▁ampliar":8012,"▁analiz":8013,"▁medir":8014,"▁regalos":8015,"The":8016,"▁importar":8017,"▁introducir":8018,"▁liderazgo":8019,"▁Gómez":8020,"▁AL":8021,"▁prede":8022,"▁dañ":8023,"▁Ú":8024,"rillo":8025,"▁trib":8026,"▁hacían":8027,"▁bebés":8028,"ecé":8029,"▁pura":8030,"▁pérdidas":8031,"▁cena":8032,"▁lesión":8033,"▁creemos":8034,"▁basura":8035,"▁Canadá":8036,"▁hig":8037,"▁normativa":8038,"▁unión":8039,"▁flex":8040,"▁crimen":8041,"▁Famil":8042,"▁almacenamiento":8043,"▁encuentros":8044,"▁éstos":8045,"▁román":8046,"▁vacío":8047,"▁diaria":8048,"▁difusión":8049,"▁afrontar":8050,"▁conquist":8051,"▁AP":8052,"▁rebel":8053,"ómica":8054,"▁videojuegos":8055,"▁individuos":8056,"▁teléfonos":8057,"▁museo":8058,"▁récord":8059,"▁ganancias":8060,"▁patrimonio":8061,"▁medicina":8062,"▁expansión":8063,"▁estábamos":8064,"▁transi":8065,"▁famosa":8066,"▁brazo":8067,"▁afuera":8068,"▁Sebas":8069,"ónimo":8070,"▁ciudadano":8071,"▁hermosa":8072,"▁Vie":8073,"▁instrucciones":8074,"▁visu":8075,"▁té":8076,"▁Lan":8077,"▁aprendido":8078,"▁desafío":8079,"▁í":8080,"▁Alcal":8081,"▁jeje":8082,"▁riqueza":8083,"lex":8084,"sia":8085,"▁orientación":8086,"ore":8087,"gil":8088,"▁héro":8089,"anes":8090,"▁Tú":8091,"▁Tar":8092,"▁anci":8093,"▁afectar":8094,"▁moderno":8095,"▁evolu":8096,"▁ayudarte":8097,"▁oscuro":8098,"▁tasas":8099,"mina":8100,"ócra":8101,"▁modificar":8102,"▁próximas":8103,"cto":8104,"▁adquisición":8105,"▁sostenible":8106,"▁armon":8107,"▁impresionante":8108,"▁especialista":8109,"▁Cul":8110,"▁postura":8111,"▁conversaciones":8112,"▁plas":8113,"▁dirigida":8114,"▁reciben":8115,"▁desarrolla":8116,"▁cable":8117,"▁fáciles":8118,"▁coordinación":8119,"▁Nadie":8120,"▁cit":8121,"▁Ru":8122,"▁ecu":8123,"▁gastron":8124,"▁prestar":8125,"▁Rafael":8126,"▁puls":8127,"▁bailar":8128,"▁tap":8129,"▁cola":8130,"▁Norm":8131,"▁test":8132,"uicios":8133,"ot":8134,"▁positivos":8135,"▁escapar":8136,"▁arries":8137,"▁obligaciones":8138,"▁funcionan":8139,"▁Jose":8140,"▁Tienes":8141,"▁estructuras":8142,"▁ambiental":8143,"vidad":8144,"▁terceros":8145,"▁delincu":8146,"taña":8147,"▁2018,":8148,"ituir":8149,"unción":8150,"▁diagnóstico":8151,"▁mete":8152,"tías":8153,"▁iguales":8154,"▁inconven":8155,"▁repeti":8156,"▁dirigir":8157,"▁Derecho":8158,"▁Cel":8159,"idaridad":8160,"▁curioso":8161,"▁circulación":8162,"▁llan":8163,"▁2007":8164,"ser":8165,"▁insul":8166,"▁abst":8167,"ribución":8168,"▁venía":8169,"▁mostra":8170,"▁autonomía":8171,"árez":8172,"▁Castilla":8173,"hacer":8174,"▁estando":8175,"▁lum":8176,"▁cinta":8177,"▁primavera":8178,"▁individuo":8179,"mbolo":8180,"▁cerrado":8181,"▁soldados":8182,"▁Papa":8183,"▁Sue":8184,"▁sucedió":8185,"▁California":8186,"ati":8187,"▁femin":8188,"▁llevará":8189,"▁hones":8190,"▁Hon":8191,"toría":8192,"▁recorrer":8193,"▁aspi":8194,"▁realizadas":8195,"▁enemigos":8196,"▁idiomas":8197,"▁deportes":8198,"▁directora":8199,"▁apart":8200,"▁Portu":8201,"▁episodio":8202,"▁composición":8203,"▁representan":8204,"orio":8205,"▁petróleo":8206,"▁tuvi":8207,"▁llevando":8208,"▁previamente":8209,"▁atraves":8210,"lue":8211,"▁dipl":8212,"▁James":8213,"▁Austral":8214,"▁contactos":8215,"▁responde":8216,"▁sober":8217,"▁específicos":8218,"▁Dise":8219,"▁participa":8220,"▁negociación":8221,"aras":8222,"▁marcado":8223,"ael":8224,"osiciones":8225,"▁tác":8226,"▁doce":8227,"▁frontera":8228,"▁posiblemente":8229,"▁solucionar":8230,"▁preciso":8231,"▁2000":8232,"▁recordó":8233,"lón":8234,"▁confirmó":8235,"▁carro":8236,"▁Servicios":8237,"▁dimensiones":8238,"▁electrónicos":8239,"▁Pu":8240,"úcle":8241,"▁añade":8242,"▁eficacia":8243,"▁escritura":8244,"BC":8245,"▁semej":8246,"▁(\"":8247,"▁publicaciones":8248,"▁individuales":8249,"▁nucle":8250,"▁tumb":8251,"▁nieve":8252,"▁reduci":8253,"▁imaginación":8254,"certidu":8255,"▁discre":8256,"▁vueltas":8257,"▁europea":8258,"▁encontré":8259,"12":8260,"▁mantienen":8261,"clar":8262,"▁vestir":8263,"opera":8264,"ánd":8265,"vez":8266,"▁revolucion":8267,"ugi":8268,"▁Paul":8269,"▁ópti":8270,"▁Ko":8271,"▁privacidad":8272,"▁siguió":8273,"▁interesado":8274,"▁órganos":8275,"▁gris":8276,"▁sobres":8277,"▁situado":8278,"▁Ke":8279,"dias":8280,"▁dinámica":8281,"▁cristal":8282,"▁Latino":8283,"▁hagas":8284,"bición":8285,"▁aust":8286,"▁III":8287,"▁saga":8288,"ze":8289,"teriormente":8290,"▁absoluta":8291,"bor":8292,"▁Sociedad":8293,"gráfica":8294,"▁vel":8295,"▁investigar":8296,"▁productor":8297,"tración":8298,"▁conducta":8299,"denas":8300,"▁Escri":8301,"▁estética":8302,"▁ejercer":8303,"▁paga":8304,"▁seguirá":8305,"▁vayan":8306,"éspe":8307,"▁entero":8308,"▁mecanismos":8309,"ándonos":8310,"wer":8311,"▁monum":8312,"▁capacitación":8313,"▁suici":8314,"▁inmun":8315,"▁descubierto":8316,"▁señalar":8317,"gulo":8318,"▁cómoda":8319,"liam":8320,"ispo":8321,"▁cercana":8322,"tilic":8323,"▁gimnas":8324,"ctur":8325,"▁Consi":8326,"▁fum":8327,"▁fri":8328,"▁contribuir":8329,"▁suena":8330,"▁vál":8331,"▁Cara":8332,"▁Indust":8333,"▁narra":8334,"▁discos":8335,"rás":8336,"▁universidades":8337,"▁índice":8338,"▁Mir":8339,"▁enrique":8340,"▁cuch":8341,"▁calific":8342,"▁temperaturas":8343,"leto":8344,"▁docente":8345,"▁Carmen":8346,"▁expresar":8347,"▁Hernández":8348,"MP":8349,"▁march":8350,"▁Torre":8351,"▁repente":8352,"▁ofrecemos":8353,"▁Quizá":8354,"▁conocía":8355,"▁seguimos":8356,"abo":8357,"▁bille":8358,"▁hoja":8359,"lantes":8360,"▁exclusivamente":8361,"▁innov":8362,"▁hermoso":8363,"▁terrible":8364,"▁únicos":8365,"▁inflación":8366,"▁estuviera":8367,"▁fortalecer":8368,"▁Ejército":8369,"▁incertidu":8370,"▁resultó":8371,"▁sirven":8372,"▁funcionario":8373,"▁piscina":8374,"▁Sebasti":8375,"▁novio":8376,"▁mercan":8377,"▁científica":8378,"▁transición":8379,"áticas":8380,"▁Virgen":8381,"▁gato":8382,"▁policías":8383,"▁Monte":8384,"▁terra":8385,"▁pertenece":8386,"▁Ph":8387,"▁lav":8388,"▁novel":8389,"▁favoritos":8390,"▁cruz":8391,"▁Gas":8392,"▁publicada":8393,"▁personalmente":8394,"▁voces":8395,"▁mía":8396,"▁moderna":8397,"▁deje":8398,"▁Radio":8399,"▁Riv":8400,"kin":8401,"IP":8402,"▁devolver":8403,"▁caro":8404,"▁recetas":8405,"ingü":8406,"▁opon":8407,"▁introdu":8408,"▁Nicol":8409,"iten":8410,"▁intelectual":8411,"▁empleado":8412,"▁long":8413,"cí":8414,"▁inquie":8415,"SS":8416,"izaciones":8417,"iamente":8418,"▁Kar":8419,"jalá":8420,"▁vuelva":8421,"▁mand":8422,"▁occiden":8423,"▁interesados":8424,"▁rebaj":8425,"▁causar":8426,"▁ingresar":8427,"amas":8428,"▁correg":8429,"▁Humanos":8430,"erten":8431,"▁delantero":8432,"isp":8433,"UD":8434,"▁funcional":8435,"▁temor":8436,"▁Nación":8437,"ement":8438,"▁básicas":8439,"▁competir":8440,"eco":8441,"▁órdenes":8442,"▁bandas":8443,"▁esquina":8444,"▁Aquel":8445,"▁diría":8446,"▁aniversario":8447,"▁existir":8448,"▁accidentes":8449,"▁escribe":8450,"▁favorito":8451,"tecas":8452,"▁line":8453,"box":8454,"▁hilo":8455,"▁anticip":8456,"▁criterio":8457,"rilla":8458,"▁estuve":8459,"▁motivación":8460,"▁Apren":8461,"▁escenas":8462,"▁tin":8463,"▁Eduardo":8464,"tito":8465,"▁salto":8466,"▁copia":8467,"▁trataba":8468,"▁empresario":8469,"▁discul":8470,"▁bosque":8471,"CION":8472,"▁abandonar":8473,"▁disciplina":8474,"▁experiment":8475,"▁Sala":8476,"▁cancha":8477,"7%":8478,"▁productividad":8479,"▁largas":8480,"▁conscientes":8481,"▁estilos":8482,"▁largos":8483,"▁impro":8484,"orro":8485,"▁arru":8486,"▁Ricardo":8487,"▁alumno":8488,"damente":8489,"entimiento":8490,"▁tenéis":8491,"▁Supon":8492,"nal":8493,"▁sorte":8494,"▁aisl":8495,"my":8496,"▁creciente":8497,"▁ocurrir":8498,"▁panorama":8499,"▁48":8500,"▁crema":8501,"▁vacuna":8502,"▁particularmente":8503,"máticos":8504,"▁2019,":8505,"▁juventud":8506,"▁chocola":8507,"izan":8508,"▁peru":8509,"asión":8510,"▁fórmula":8511,"▁básica":8512,"▁asomb":8513,"▁elevado":8514,"izados":8515,"anto":8516,"trices":8517,"▁Cabe":8518,"▁vitam":8519,"▁pertene":8520,"▁núcle":8521,"▁apariencia":8522,"▁inoc":8523,"cinas":8524,"yeron":8525,"▁Málaga":8526,"▁\"¡":8527,"▁explotación":8528,"▁repercu":8529,"▁encabez":8530,"ella":8531,"▁pongo":8532,"▁automáticamente":8533,"isos":8534,"▁Ari":8535,"▁progreso":8536,"citos":8537,"güen":8538,"▁ajuste":8539,"▁juven":8540,"▁fiel":8541,"LE":8542,"▁caj":8543,"IR":8544,"▁sostuvo":8545,"▁símbolo":8546,"▁precisión":8547,"▁respectivamente":8548,"▁mencionado":8549,"▁Ahí":8550,"▁inmediata":8551,"viar":8552,"eñas":8553,"Ah":8554,"▁vigente":8555,"▁mantuvo":8556,"sí":8557,"▁Ambi":8558,"▁vieron":8559,"▁consumidor":8560,"mn":8561,"▁mila":8562,"▁2021":8563,"oli":8564,"▁mierda":8565,"▁reconoció":8566,"4%":8567,"▁Reyes":8568,"▁torm":8569,"▁Anti":8570,"quido":8571,"90":8572,"▁refuer":8573,"▁gub":8574,"▁rumbo":8575,"▁específicas":8576,"ach":8577,"▁Popular":8578,"▁impulso":8579,"▁potente":8580,"▁neum":8581,"▁tío":8582,"▁2017,":8583,"▁poe":8584,"▁recaud":8585,"▁estadísticas":8586,"▁esenciales":8587,"▁preguntó":8588,"drás":8589,"indi":8590,"▁implementación":8591,"tuario":8592,"▁escenarios":8593,"udas":8594,"▁hidra":8595,"3%":8596,"▁sombra":8597,"▁Descu":8598,"▁Christ":8599,"▁manipul":8600,"ráficas":8601,"esía":8602,"▁elegante":8603,"▁gratuito":8604,"▁memor":8605,"▁Española":8606,"▁Entr":8607,"▁jubil":8608,"▁salga":8609,"▁Información":8610,"jeron":8611,"▁rel":8612,"cones":8613,"▁Palacio":8614,"▁fracaso":8615,"▁RE":8616,"▁cirugía":8617,"cera":8618,"ecían":8619,"titudes":8620,"▁depresión":8621,"▁apete":8622,"cienda":8623,"orld":8624,"▁detectar":8625,"▁2016,":8626,"▁registrado":8627,"▁Código":8628,"▁reformas":8629,"▁dibujo":8630,"▁estuvi":8631,"▁arque":8632,"▁PD":8633,"▁instancia":8634,"▁fotógraf":8635,"vide":8636,"▁relevante":8637,"trop":8638,"▁contrad":8639,"ics":8640,"gráfico":8641,"▁piensan":8642,"▁editorial":8643,"ulación":8644,"▁exige":8645,"▁Santos":8646,"▁odio":8647,"70":8648,"▁Indepen":8649,"toño":8650,"▁importe":8651,"▁documental":8652,"▁organiza":8653,"▁votar":8654,"▁motores":8655,"▁pará":8656,"▁destacado":8657,"▁Doc":8658,"▁electrónica":8659,"▁pasaba":8660,"▁dirigentes":8661,"▁pá":8662,"▁Michael":8663,"▁Tres":8664,"▁latino":8665,"uca":8666,"▁relativamente":8667,"▁Fiscalía":8668,"reros":8669,"▁marcador":8670,"▁contratación":8671,"▁cae":8672,"rey":8673,"▁óp":8674,"▁claras":8675,"▁ego":8676,"▁División":8677,"▁William":8678,"ficio":8679,"ashington":8680,"▁AN":8681,"▁aci":8682,"▁asistentes":8683,"▁desigual":8684,"▁om":8685,"▁enviado":8686,"gú":8687,"▁femenino":8688,"eria":8689,"Cuando":8690,"▁mecanismo":8691,"▁diputados":8692,"cola":8693,"▁descenso":8694,"▁XIX":8695,"▁depos":8696,"▁set":8697,"iona":8698,"▁constituye":8699,"▁inex":8700,"▁Ecuador":8701,"cismo":8702,"▁Cari":8703,"▁valoración":8704,"▁Frente":8705,"▁escog":8706,"▁table":8707,"▁apo":8708,"mica":8709,"▁cuyos":8710,"▁olor":8711,"▁desesper":8712,"▁PAR":8713,"isco":8714,"▁Economía":8715,"▁haberse":8716,"▁provoca":8717,"▁raza":8718,"▁virtud":8719,"▁Vas":8720,"▁8.":8721,"▁Isabel":8722,"▁eléctricos":8723,"▁continuidad":8724,"eramente":8725,"erador":8726,"tumbre":8727,"▁aficionados":8728,"▁2015,":8729,"▁Espíritu":8730,"wood":8731,"▁Pese":8732,"▁Black":8733,"▁utilizados":8734,"fit":8735,"▁pelea":8736,"▁deportiva":8737,"▁puro":8738,"11":8739,"▁bandera":8740,"▁AR":8741,"goza":8742,".[":8743,"▁inspiración":8744,"▁:)":8745,"▁rutas":8746,"MI":8747,"▁be":8748,"▁→":8749,"▁glob":8750,"▁hol":8751,"▁obligado":8752,"▁insegu":8753,"tipo":8754,"▁mó":8755,"Quieres":8756,"ik":8757,"▁gráfico":8758,"▁DEL":8759,"▁aux":8760,"▁embaj":8761,"▁físicas":8762,"▁intim":8763,"▁argumento":8764,"▁aer":8765,"▁apunta":8766,"▁calent":8767,"▁desayuno":8768,"▁negativa":8769,"▁supongo":8770,"▁descripción":8771,"▁diputado":8772,"ecas":8773,"▁reduce":8774,"▁necesitaba":8775,"▁ancho":8776,"▁agrí":8777,"▁Oro":8778,"▁teór":8779,"▁clubes":8780,"▁compuesto":8781,"▁sincer":8782,"▁fábrica":8783,"2%":8784,"▁noctur":8785,"▁maquilla":8786,"▁reducido":8787,"erales":8788,"▁Fab":8789,"▁Luna":8790,"ward":8791,"▁mister":8792,"▁necesariamente":8793,"▁Técn":8794,"▁llegamos":8795,"▁renta":8796,"▁cuarent":8797,"Ar":8798,"▁pala":8799,"▁incent":8800,"arro":8801,"▁labios":8802,"ueble":8803,"▁perf":8804,"BI":8805,"▁Recuerda":8806,"▁madri":8807,"▁Hen":8808,"ernam":8809,"▁secu":8810,"▁orgullo":8811,"▁madru":8812,"▁italiano":8813,"▁trama":8814,"▁verás":8815,"▁privadas":8816,"▁llor":8817,"llo":8818,"▁Igual":8819,"▁habíamos":8820,"▁bac":8821,"▁adoptar":8822,"▁ricos":8823,"▁trascen":8824,"▁Cristina":8825,"▁Washington":8826,"pciones":8827,"▁circuito":8828,"▁consigo":8829,"▁prendas":8830,"ísimos":8831,"▁amable":8832,"▁cafe":8833,"▁Ins":8834,"▁bin":8835,"▁Respecto":8836,"▁sabido":8837,"▁tela":8838,"▁cortar":8839,"▁escul":8840,"▁Festival":8841,"▁traducción":8842,"8%":8843,"▁templo":8844,"▁clasific":8845,"▁alcanzó":8846,"▁festival":8847,"▁inclusión":8848,"▁Poco":8849,"▁denunci":8850,"▁generos":8851,"▁reparación":8852,"▁Boli":8853,"▁Director":8854,"▁2020,":8855,"▁fabricante":8856,"▁cerveza":8857,"▁predi":8858,"verdad":8859,"▁mandato":8860,"▁acontecimientos":8861,"▁construido":8862,"▁huevos":8863,"▁vicepres":8864,"▁encontraron":8865,"▁caras":8866,"istos":8867,"▁decirle":8868,"íncipe":8869,"▁Hotel":8870,"▁seman":8871,"▁deterior":8872,"▁lej":8873,"▁modern":8874,"▁borde":8875,"▁repu":8876,"▁indispens":8877,"▁Tea":8878,"ínea":8879,"▁tejido":8880,"▁habéis":8881,"▁vigor":8882,"▁das":8883,"▁llevamos":8884,"▁vivió":8885,"▁privados":8886,"▁verdaderamente":8887,"▁muertes":8888,"▁columna":8889,"entre":8890,"▁aprobado":8891,"▁pensamos":8892,"▁extin":8893,"▁optar":8894,"▁sanitaria":8895,"gran":8896,"éndolo":8897,"titu":8898,"▁averi":8899,"▁plantea":8900,"mato":8901,"▁vecino":8902,"▁orient":8903,"dadas":8904,"▁específica":8905,"▁británico":8906,"ránsito":8907,"▁muestras":8908,"▁guitarra":8909,"▁ámbitos":8910,"▁poderes":8911,"▁asociaciones":8912,"▁comprado":8913,"▁créditos":8914,"▁propietarios":8915,"▁jornadas":8916,"▁universal":8917,"▁tonel":8918,"9%":8919,"▁capitán":8920,"▁Protección":8921,"▁proven":8922,"▁divor":8923,"▁sienta":8924,"▁implement":8925,"▁aporte":8926,"ides":8927,"▁adaptar":8928,"▁Ciencias":8929,"▁electricidad":8930,"antil":8931,"▁editor":8932,"▁Ambos":8933,"▁simples":8934,"tn":8935,"▁acero":8936,"6%":8937,"▁Voy":8938,"▁comunicaciones":8939,"▁clínica":8940,"▁Saludos":8941,"▁contemporán":8942,"▁viva":8943,"▁Noticias":8944,"▁50%":8945,"▁reina":8946,"▁hijas":8947,"▁Cha":8948,"▁indígenas":8949,"▁educativa":8950,"▁francesa":8951,"▁mexicanos":8952,"▁servidor":8953,"inete":8954,"americanos":8955,"▁vieja":8956,"▁Supre":8957,"▁traje":8958,"iras":8959,"▁darte":8960,"ald":8961,"Cre":8962,"▁mundi":8963,"▁climático":8964,"▁llegará":8965,"▁Unidad":8966,"▁34":8967,"▁mantenerse":8968,"▁negociaciones":8969,"▁Agencia":8970,"▁combina":8971,"▁identificación":8972,"▁temporadas":8973,"▁escucha":8974,"▁horarios":8975,"▁disfra":8976,",...":8977,"▁10.":8978,"▁Australia":8979,"▁perfección":8980,"▁treinta":8981,"▁fort":8982,"▁Bogo":8983,"▁frecuente":8984,"▁estaciones":8985,"▁Orden":8986,"▁retirar":8987,"▁muscular":8988,"▁hacerle":8989,"▁coron":8990,"▁permitan":8991,"▁incertidumbre":8992,"▁Carta":8993,"▁experimentar":8994,"apia":8995,"▁retom":8996,"▁arres":8997,"▁Apro":8998,"▁refleja":8999,"▁urbano":9000,"15":9001,"tle":9002,"▁Universi":9003,"hab":9004,"▁fomentar":9005,"▁atac":9006,"▁conlle":9007,"▁informado":9008,"▁congel":9009,"▁prolon":9010,"▁juguetes":9011,"entamente":9012,"▁escuchado":9013,"▁Colegio":9014,"▁propietario":9015,"▁pecul":9016,"▁QUE":9017,"selo":9018,"pidez":9019,"▁cortes":9020,"▁pasaron":9021,"bieron":9022,"istencia":9023,"▁Leon":9024,"▁llamados":9025,"▁cambiando":9026,"▁reún":9027,"▁amenazas":9028,"iduos":9029,"▁Escu":9030,"ish":9031,"▁acondi":9032,"▁2006":9033,"▁6,":9034,"▁dedicada":9035,"...\"":9036,"▁persi":9037,"▁costumbre":9038,"▁atrib":9039,"Una":9040,"▁Oscar":9041,"▁limpio":9042,"▁roja":9043,"▁prestaciones":9044,"▁arco":9045,"▁comis":9046,"▁here":9047,"▁Roberto":9048,"▁refugi":9049,"▁paisaje":9050,"▁Asia":9051,"▁recomendación":9052,"▁tenia":9053,"▁solidaridad":9054,"▁jugó":9055,"▁pudieran":9056,"mamente":9057,"▁film":9058,"▁realizados":9059,"▁mexicana":9060,"▁supuest":9061,"▁recep":9062,"▁Será":9063,"▁computadora":9064,"▁parlament":9065,"▁toman":9066,"▁naran":9067,"▁informar":9068,"▁montar":9069,"▁recopil":9070,"▁renovación":9071,"▁éstas":9072,"▁basta":9073,"▁define":9074,"▁abuso":9075,"▁Rosa":9076,"▁terapia":9077,"▁190":9078,"▁Rub":9079,"▁claridad":9080,"▁casti":9081,"▁sufren":9082,"▁préstamo":9083,"▁explicado":9084,"▁ubicada":9085,"▁valorar":9086,"ándola":9087,"▁hiper":9088,"▁vid":9089,"▁sociedades":9090,"▁laboratorio":9091,"▁Lima":9092,"▁Tim":9093,"▁fruto":9094,"▁rebo":9095,"▁quem":9096,"▁Excel":9097,"▁Metro":9098,"▁Evi":9099,"▁participó":9100,"íes":9101,"▁dinám":9102,"▁abuela":9103,"▁mesas":9104,"▁destacan":9105,"▁abogados":9106,"▁anunciado":9107,"ua":9108,"▁andar":9109,"▁acercar":9110,"nado":9111,"▁cargar":9112,"▁lanzado":9113,"▁dibujos":9114,"mio":9115,"▁camiseta":9116,"▁Castro":9117,"▁quedo":9118,"ight":9119,"raba":9120,"▁limpia":9121,"▁Camp":9122,"tiende":9123,"▁asust":9124,"▁Chi":9125,"▁contaminación":9126,"precio":9127,"▁notar":9128,"▁calma":9129,"▁cajas":9130,"▁vuelven":9131,"▁sientes":9132,"99":9133,"▁separación":9134,"▁bau":9135,"ges":9136,"▁mutu":9137,"▁Hacienda":9138,"ifi":9139,"enz":9140,"icios":9141,"▁hallar":9142,"▁combustible":9143,"ans":9144,"▁frutas":9145,"▁rehabil":9146,"▁radi":9147,"▁descuentos":9148,"▁bebidas":9149,"▁percepción":9150,"▁obe":9151,"▁satisfacer":9152,"▁habituales":9153,"▁fabricantes":9154,"PE":9155,"▁impre":9156,"▁disponer":9157,"▁consideración":9158,"chada":9159,"▁formal":9160,"▁600":9161,"eció":9162,"▁buscas":9163,"▁surge":9164,"gantes":9165,"▁corpora":9166,"izó":9167,"▁circular":9168,"▁peliculas":9169,"▁inmobili":9170,"▁hielo":9171,"undamente":9172,"▁convencer":9173,"▁Nie":9174,"▁modalidad":9175,"▁Zaragoza":9176,"tamen":9177,"▁rural":9178,"gues":9179,"▁distrito":9180,"▁Bogotá":9181,"uación":9182,"▁golpes":9183,"▁sucedido":9184,"▁transcur":9185,"▁ejecutar":9186,"esen":9187,"ñe":9188,"▁supo":9189,"▁atraer":9190,"▁futuros":9191,"▁clásicos":9192,"▁profundi":9193,"▁músculos":9194,"▁patrón":9195,"▁cuarentena":9196,"▁cuantas":9197,"▁ejecutivo":9198,"▁gastar":9199,"▁fascin":9200,"▁utilic":9201,"▁Oficina":9202,"▁maquillaje":9203,"ori":9204,"Ex":9205,"▁excelentes":9206,"lite":9207,"ciera":9208,"▁mm":9209,"▁discriminación":9210,"▁conservación":9211,"▁determinados":9212,"▁porqué":9213,"▁dep":9214,"▁Bon":9215,"zones":9216,"orden":9217,"▁mort":9218,"cad":9219,"▁heridas":9220,"▁intenso":9221,"▁có":9222,"IG":9223,"▁abiertos":9224,"gs":9225,"túan":9226,"tibles":9227,"▁bienvenida":9228,"▁pata":9229,"▁abordar":9230,"▁indicado":9231,"temp":9232,"▁alm":9233,"▁Senado":9234,"▁añadido":9235,"▁desempleo":9236,"▁eliminación":9237,"▁YouT":9238,"▁inyec":9239,"imas":9240,"▁portu":9241,"▁preocupar":9242,"▁transparencia":9243,"▁fama":9244,"▁encantado":9245,"▁comidas":9246,"▁sensaciones":9247,"▁primaria":9248,"▁debut":9249,"▁Pel":9250,"▁gubernam":9251,"▁castel":9252,"▁loco":9253,"▁captu":9254,"▁Emil":9255,"▁nace":9256,"▁parezca":9257,"▁señalado":9258,"▁obviamente":9259,"▁afectado":9260,"▁alcanza":9261,"▁entrevist":9262,"▁espon":9263,"▁Casi":9264,"▁extraña":9265,"▁luna":9266,"▁desafíos":9267,"▁demon":9268,"▁conclusiones":9269,"▁apreciar":9270,"▁sorprendente":9271,"▁SEO":9272,"▁epi":9273,"jando":9274,"▁aceptación":9275,"▁empezaron":9276,"▁irse":9277,"▁alimento":9278,"▁sepa":9279,"idal":9280,"▁Den":9281,"▁bron":9282,"!,":9283,"cher":9284,"▁papeles":9285,"▁supervi":9286,"▁SU":9287,"guas":9288,"▁mostrado":9289,"tano":9290,"▁perdiendo":9291,"▁gala":9292,"▁tarifas":9293,"dora":9294,"▁longitud":9295,"▁piedras":9296,"▁Ángeles":9297,"▁inteligentes":9298,"pié":9299,"▁baile":9300,"▁Tes":9301,"▁órgano":9302,"▁flexi":9303,"gros":9304,"▁mueve":9305,"▁aparato":9306,"▁playas":9307,"úr":9308,"FE":9309,"▁Cualquier":9310,"▁continente":9311,"mpli":9312,"▁suspensión":9313,"dol":9314,"▁Comercio":9315,"▁sufrimiento":9316,"▁Ó":9317,"▁registros":9318,"▁fallo":9319,"▁Nicolás":9320,"▁duelo":9321,"▁altamente":9322,"▁gre":9323,"▁reveló":9324,"App":9325,"▁sufre":9326,"▁Portugal":9327,"▁Martin":9328,"pirar":9329,"diar":9330,"▁votación":9331,"▁Pien":9332,"▁empate":9333,"▁otoño":9334,"▁signos":9335,"▁representar":9336,"DA":9337,"▁civiles":9338,"▁Glo":9339,"▁contactar":9340,"▁impu":9341,"▁convenio":9342,"▁crítico":9343,"▁chi":9344,"▁encuentre":9345,"stem":9346,"▁baratos":9347,"ortuna":9348,"▁Blanca":9349,"▁caballo":9350,"▁Produc":9351,"ind":9352,"▁alojamiento":9353,"▁Granada":9354,"▁Egi":9355,"▁redi":9356,"xo":9357,"rimas":9358,"▁reservas":9359,"▁Política":9360,"▁conocidas":9361,"▁advir":9362,"▁Lam":9363,"▁poesía":9364,"▁extremadamente":9365,"tuvieron":9366,"▁We":9367,"▁Sui":9368,"▁asigna":9369,"▁logro":9370,"▁restricciones":9371,"▁contento":9372,"▁report":9373,"▁(4":9374,"▁infección":9375,"▁ces":9376,"▁respetar":9377,"▁acusado":9378,"▁autorización":9379,"▁implementar":9380,"sula":9381,"▁reiv":9382,"gón":9383,"Ya":9384,"▁verte":9385,"▁cria":9386,"oluciones":9387,"tirá":9388,"▁amo":9389,"▁cuota":9390,"▁Tenía":9391,"▁exhi":9392,"▁xD":9393,"▁concluyó":9394,"▁condu":9395,"▁diarios":9396,"25":9397,"▁previs":9398,"▁2018.":9399,"turo":9400,"▁conducción":9401,"▁descarga":9402,"▁raíces":9403,"▁¡¡":9404,"▁One":9405,"▁empecé":9406,"▁rever":9407,"▁humedad":9408,"tadura":9409,"▁Cont":9410,"ónicas":9411,"quero":9412,"▁Arte":9413,"bro":9414,"▁ascenso":9415,"▁aline":9416,"▁exclusiva":9417,"▁cristianos":9418,"▁quedaba":9419,"▁beber":9420,"▁Bil":9421,"idez":9422,"▁Mayor":9423,"▁biblioteca":9424,"▁cantar":9425,"▁YouTube":9426,"▁referencias":9427,"▁sobrevivir":9428,"onces":9429,"▁molesti":9430,"▁Bolivia":9431,"▁coher":9432,"▁debió":9433,"gnos":9434,"▁salas":9435,"▁reiter":9436,"jería":9437,"dea":9438,"▁..":9439,"▁chino":9440,"▁alerta":9441,"▁salarios":9442,"▁generan":9443,"\")":9444,"▁seguía":9445,"▁lento":9446,"▁blogs":9447,"▁inevi":9448,"▁Leg":9449,"▁ára":9450,"▁IP":9451,"▁empiezan":9452,"▁automo":9453,"▁formulario":9454,"▁Resul":9455,"étr":9456,"▁drama":9457,"▁expresa":9458,"▁Nor":9459,"▁fría":9460,"▁controles":9461,"▁brinda":9462,"▁alcanzado":9463,"Pro":9464,"▁certificado":9465,"▁relacionada":9466,"diera":9467,"▁cuentos":9468,"▁ingen":9469,"▁dispuestos":9470,"▁corriendo":9471,"güenza":9472,"▁contaba":9473,"iblia":9474,"▁emisiones":9475,"ídas":9476,"▁remon":9477,"▁subida":9478,"▁provincias":9479,"▁Atlético":9480,"▁amigas":9481,"▁fiscales":9482,"cy":9483,"▁perse":9484,"▁kilos":9485,"AB":9486,"tive":9487,"▁défici":9488,"▁IS":9489,"▁expuls":9490,"▁indican":9491,"▁depart":9492,"▁cumplen":9493,"ormes":9494,"OC":9495,"▁Peña":9496,"▁2014,":9497,"▁envió":9498,"▁barrios":9499,"▁aca":9500,"▁(...)":9501,"▁aclarar":9502,"▁dichas":9503,"▁Ramón":9504,"▁corporal":9505,"▁vínculo":9506,"▁nube":9507,"▁aviso":9508,"▁Nuestros":9509,"▁vimos":9510,"▁distra":9511,"▁garantiza":9512,"1%":9513,"cab":9514,"▁peligroso":9515,"▁caball":9516,"enciar":9517,"▁islas":9518,"▁modificación":9519,"ariales":9520,"▁ideales":9521,"ça":9522,"▁dependencia":9523,"▁show":9524,"vol":9525,"▁reino":9526,"▁interacción":9527,"▁verdes":9528,"▁subsi":9529,"▁famosos":9530,"▁líquido":9531,"▁tramo":9532,"▁Poder":9533,"▁obtenido":9534,"▁Torres":9535,"▁fija":9536,"▁chocolate":9537,"▁comentado":9538,"▁frecuentes":9539,"▁confiar":9540,"▁sentidos":9541,"▁terren":9542,"▁resu":9543,"▁conciertos":9544,"▁presidenta":9545,"▁procl":9546,"▁solos":9547,"▁impulsar":9548,"▁cóm":9549,"▁(200":9550,"irman":9551,"▁Fondo":9552,"▁argumentos":9553,"▁imi":9554,"▁ceremonia":9555,"▁7,":9556,"▁básicamente":9557,"▁-¿":9558,"▁satisfac":9559,"▁Academia":9560,"▁asociados":9561,"▁top":9562,"▁quinto":9563,"▁sana":9564,"▁hun":9565,"▁gatos":9566,"▁afectan":9567,"▁despren":9568,"▁tramp":9569,"▁respaldo":9570,"▁confort":9571,"▁materias":9572,"▁parado":9573,"▁suministro":9574,"▁pusieron":9575,"▁aler":9576,"▁email":9577,"▁reproduc":9578,"▁leyenda":9579,"▁logo":9580,"▁disponibilidad":9581,"▁prevent":9582,"idado":9583,"▁Ayer":9584,"▁escrita":9585,"▁Energ":9586,"▁dedo":9587,"▁desh":9588,"▁mandar":9589,"Ch":9590,"▁desgracia":9591,"▁pistas":9592,"▁viajeros":9593,"▁rosa":9594,"▁unir":9595,"▁despertar":9596,"▁lateral":9597,"▁deberías":9598,"▁prestación":9599,"▁párrafo":9600,"▁cualidades":9601,"▁regul":9602,"▁aval":9603,"▁comenzado":9604,"▁Media":9605,"▁nom":9606,"▁decidí":9607,"▁pertin":9608,"daje":9609,"▁autobús":9610,"▁irá":9611,"▁encuentras":9612,"▁específicamente":9613,"▁Lleg":9614,"▁perdón":9615,"UC":9616,"▁fronteras":9617,"▁38":9618,"▁ventanas":9619,"▁Sar":9620,"rección":9621,"▁hacerte":9622,"▁bomba":9623,"▁compet":9624,"top":9625,"DO":9626,"tedral":9627,"▁cartel":9628,"▁hospitales":9629,"▁dele":9630,"▁Frank":9631,"ben":9632,"▁Temp":9633,"▁intentó":9634,"ier":9635,"▁perdon":9636,"▁inesper":9637,"▁edades":9638,"▁futbolista":9639,"▁enve":9640,"▁2019.":9641,"▁Ingeni":9642,"▁depósito":9643,"▁Cuenta":9644,"▁blancos":9645,"▁lleve":9646,"▁tonos":9647,"hua":9648,"▁confirmar":9649,"▁cultiv":9650,"▁Guiller":9651,"▁decidieron":9652,"▁Alfon":9653,"▁misterio":9654,"▁65":9655,"▁remi":9656,"▁Simple":9657,"diciones":9658,"▁ilegal":9659,"▁=":9660,"▁signo":9661,"cam":9662,"▁puse":9663,"▁charla":9664,"▁comenta":9665,"▁Sebastián":9666,"way":9667,"fun":9668,"▁parada":9669,"▁españolas":9670,"▁vigilancia":9671,"▁grabación":9672,"▁AS":9673,"▁reforzar":9674,"▁nub":9675,"▁divul":9676,"▁abiertas":9677,"▁diseñar":9678,"ezcan":9679,"▁práctico":9680,"▁preparados":9681,"▁secundaria":9682,"▁lógico":9683,"▁presupuest":9684,"▁espejo":9685,"▁Rich":9686,"▁visible":9687,"▁residuos":9688,"▁policial":9689,"trocin":9690,"▁cartera":9691,"▁Esco":9692,"▁frag":9693,"▁limitado":9694,"▁parcial":9695,"▁sentado":9696,"▁Merce":9697,"▁tribu":9698,"itco":9699,"▁destrucción":9700,"▁disposiciones":9701,"▁tirar":9702,"▁adolescente":9703,"▁pasamos":9704,"íg":9705,"peta":9706,"▁surgió":9707,"▁modificaciones":9708,"▁sueldo":9709,"adilla":9710,"▁dirige":9711,"▁musicales":9712,"▁consultas":9713,"▁realizaron":9714,"▁venden":9715,"▁descansar":9716,"onso":9717,"▁Secretario":9718,"▁deberíamos":9719,"its":9720,"▁aviones":9721,"▁quince":9722,"▁efectivamente":9723,"▁elector":9724,"sung":9725,"▁amantes":9726,"▁Moreno":9727,"▁esperado":9728,"dares":9729,"▁bañ":9730,"▁solid":9731,"▁consumir":9732,"▁mezcl":9733,"▁introducción":9734,"▁polémica":9735,"▁só":9736,"▁feste":9737,"▁respira":9738,"-4":9739,"▁compara":9740,"▁rechazo":9741,"▁antiguas":9742,"▁Pra":9743,"▁Defensa":9744,"▁garantías":9745,"▁angust":9746,"▁viejos":9747,"▁adquier":9748,"▁10,":9749,"▁testigos":9750,"▁dada":9751,"▁inmigrantes":9752,"▁geog":9753,"▁podrías":9754,"▁pinta":9755,"▁aqui":9756,"cena":9757,"▁toneladas":9758,"érico":9759,"▁gravedad":9760,"▁once":9761,"\":":9762,"▁grabar":9763,"▁precisa":9764,"enses":9765,"mió":9766,"▁vuestros":9767,"▁vende":9768,"ándote":9769,"▁gigante":9770,"ímetros":9771,"▁Egipto":9772,"▁agencias":9773,"▁Ren":9774,"▁noso":9775,"▁devuel":9776,"▁desarrollando":9777,"▁Corea":9778,"ICA":9779,"▁autora":9780,"ecido":9781,"▁creada":9782,"▁izquierdo":9783,"▁Gabriel":9784,"▁encu":9785,"▁despla":9786,"▁metá":9787,"▁relevantes":9788,"gr":9789,"▁navide":9790,"▁dormi":9791,"▁tatu":9792,"▁gesto":9793,"▁Arch":9794,"▁Segura":9795,"▁ore":9796,"▁dimensión":9797,"▁ponemos":9798,"usto":9799,"▁Word":9800,"▁labores":9801,"sApp":9802,"▁suya":9803,"▁préstamos":9804,"ículo":9805,"radores":9806,"▁ventil":9807,"▁mono":9808,"dito":9809,"▁Len":9810,"▁Gala":9811,"▁hipó":9812,"▁sentimos":9813,"▁testimonio":9814,"▁Usu":9815,"▁eco":9816,"▁hechas":9817,"▁37":9818,"▁encer":9819,"▁ruso":9820,"▁estándares":9821,"▁durar":9822,"▁multiplic":9823,"▁horm":9824,"▁Sha":9825,"▁sonidos":9826,"lique":9827,"▁independientes":9828,"ted":9829,"urar":9830,"▁monstru":9831,"▁elaborar":9832,"▁dedica":9833,"▁secretos":9834,"▁2020.":9835,"▁Hal":9836,"▁provincial":9837,"ling":9838,"▁Rock":9839,"▁contribuy":9840,"eld":9841,"▁inclus":9842,"▁fla":9843,"▁incrementar":9844,"yan":9845,"▁adaptarse":9846,"▁diversión":9847,"▁120":9848,"▁ofreciendo":9849,"▁lág":9850,"▁cuadros":9851,"▁arreglar":9852,"▁interro":9853,"▁redac":9854,"▁maltra":9855,"▁empleos":9856,"▁abus":9857,"▁ocupación":9858,"▁determinada":9859,"▁residentes":9860,"▁Proyecto":9861,"▁educativos":9862,"▁consideró":9863,"▁Gobern":9864,"▁portavoz":9865,"umer":9866,"ET":9867,"▁empezando":9868,"▁parto":9869,"▁irregular":9870,"▁medal":9871,"▁pudimos":9872,"▁disminuir":9873,"▁gustaba":9874,"Este":9875,"▁Guillermo":9876,"chado":9877,"énez":9878,"▁culmin":9879,"▁engan":9880,"▁citas":9881,"▁maravillosa":9882,"▁disminución":9883,"quín":9884,"▁une":9885,"▁Eu":9886,"▁CN":9887,"▁verti":9888,"▁listado":9889,"▁naciones":9890,"▁Viv":9891,"▁Hor":9892,"▁disi":9893,"▁logros":9894,"▁gole":9895,"▁conoció":9896,"antán":9897,"▁males":9898,"queta":9899,"▁comparar":9900,"inó":9901,"▁9.":9902,"▁decenas":9903,"orpora":9904,"▁aislamiento":9905,"▁refug":9906,"▁asiento":9907,"▁Pregun":9908,"ning":9909,"ions":9910,"▁Sport":9911,"▁2005":9912,"▁realizará":9913,"▁Autón":9914,"ebra":9915,"lash":9916,"tizar":9917,"ox":9918,"▁Fun":9919,"damos":9920,"▁Domingo":9921,"▁verá":9922,"úblico":9923,"▁negros":9924,"▁compromisos":9925,"mol":9926,"▁atacar":9927,"▁octa":9928,"▁incapa":9929,"▁colombiano":9930,"▁lim":9931,"▁Semana":9932,"▁pilotos":9933,"▁Raúl":9934,"▁LOS":9935,"▁volar":9936,"▁hablaba":9937,"▁hubieran":9938,"lero":9939,"▁internos":9940,"▁afición":9941,"▁contado":9942,"▁querían":9943,"▁adopción":9944,"▁proveedor":9945,"▁demuest":9946,"▁Sp":9947,"▁patio":9948,"▁piden":9949,"▁venga":9950,"uirá":9951,"eamente":9952,"▁Encuent":9953,"▁pregunto":9954,"▁Americ":9955,"tear":9956,"▁operar":9957,"▁tribunal":9958,"Co":9959,"▁adjudi":9960,"▁Gestión":9961,"▁Haz":9962,"▁Adri":9963,"▁oír":9964,"▁parad":9965,"▁déficit":9966,"▁Angel":9967,"▁trami":9968,"▁sustancias":9969,"▁Guardia":9970,"▁casino":9971,"▁sentí":9972,"▁Marce":9973,"▁natur":9974,"tinos":9975,"cén":9976,"▁quedará":9977,"terapia":9978,"▁peculiar":9979,"▁Rosario":9980,"▁IV":9981,"▁juntas":9982,"▁justific":9983,"mala":9984,"ési":9985,"▁Var":9986,"▁Madre":9987,"enco":9988,"▁comienzan":9989,"▁|":9990,"zaron":9991,"▁estreno":9992,"▁WhatsApp":9993,"▁identi":9994,"▁excepto":9995,"▁generado":9996,"▁acabo":9997,"▁interrump":9998,"▁enormes":9999,"▁conme":10000,"▁Bill":10001,"▁emble":10002,"iduría":10003,"▁torre":10004,"▁convivencia":10005,"▁eno":10006,"▁fundación":10007,"▁lograron":10008,"▁incluida":10009,"▁vers":10010,"▁montañas":10011,"cturas":10012,"▁notable":10013,"▁patrocin":10014,"▁destinos":10015,"▁ampliación":10016,"jeras":10017,"▁madrugada":10018,"▁oeste":10019,"].":10020,"▁colaborar":10021,"▁tropas":10022,"▁argentina":10023,"ván":10024,"▁Cin":10025,"atía":10026,"▁empezado":10027,"▁marcó":10028,"▁cach":10029,"▁transferencia":10030,"▁posteriores":10031,"▁Estu":10032,"▁detención":10033,"▁cumplido":10034,"▁tuyo":10035,"▁fijo":10036,"▁George":10037,"▁Depen":10038,"▁embarazada":10039,"▁inicios":10040,"▁jugado":10041,"▁promete":10042,"inan":10043,"▁recepción":10044,"▁Alonso":10045,"▁descubri":10046,"▁Hel":10047,"▁grue":10048,"▁crean":10049,"▁Vicente":10050,"▁parro":10051,"▁recar":10052,"▁rivales":10053,"▁indicadores":10054,"▁utilizada":10055,"▁asimismo":10056,"▁centrales":10057,"▁vencer":10058,"▁75":10059,"▁decimos":10060,"▁institucional":10061,"▁afectadas":10062,"▁ganando":10063,"▁Stor":10064,"▁tó":10065,"▁2012,":10066,"▁dignidad":10067,"▁describe":10068,"▁profundamente":10069,"▁destinado":10070,"Estamos":10071,"▁Vera":10072,"▁tristeza":10073,"▁explorar":10074,"▁ultra":10075,"▁hiciera":10076,"▁encuestas":10077,"▁espectadores":10078,"▁caracteriza":10079,"▁precioso":10080,"▁Ray":10081,"▁conviene":10082,"▁bolsillo":10083,"▁vestidos":10084,"▁creencias":10085,"▁campes":10086,"▁energías":10087,"venta":10088,"▁Equi":10089,"▁preserv":10090,"▁supermer":10091,"▁manteniendo":10092,"ícula":10093,"▁Messi":10094,"▁Selección":10095,"éndole":10096,"▁hier":10097,"cripción":10098,"▁atribu":10099,"▁Compar":10100,"▁interfa":10101,"▁ONU":10102,"▁sat":10103,"▁dueños":10104,"▁vacunas":10105,"▁sujetos":10106,"▁tránsito":10107,"▁metodología":10108,"▁escritorio":10109,"▁frutos":10110,"▁vivos":10111,"oros":10112,"▁alber":10113,"ificaciones":10114,"▁mentira":10115,"▁Ken":10116,"▁portada":10117,"▁incorporación":10118,"▁frances":10119,"▁cultivo":10120,"▁maquin":10121,"▁City":10122,"▁Disney":10123,"▁Bat":10124,"▁aventuras":10125,"▁ángel":10126,"uiz":10127,"▁promociones":10128,"▁círculo":10129,"▁Gil":10130,"▁diagnos":10131,"▁defien":10132,"▁presidencia":10133,"▁incons":10134,"▁deportivas":10135,"▁!":10136,"▁judíos":10137,"into":10138,"▁avanzado":10139,"▁Cli":10140,"19":10141,"▁Claudi":10142,"econ":10143,"▁Teatro":10144,"▁enfoc":10145,"▁Reci":10146,"▁event":10147,"▁che":10148,"▁hablo":10149,"▁prevé":10150,"▁Ira":10151,"▁absur":10152,"▁encantan":10153,"▁Otras":10154,"▁Robert":10155,"▁Ton":10156,"▁tos":10157,"▁colegios":10158,"▁participaron":10159,"▁Contra":10160,"▁temática":10161,"▁peores":10162,"▁Parti":10163,"▁aves":10164,"▁fortuna":10165,"▁Sara":10166,"▁habit":10167,"▁supera":10168,"▁monedas":10169,"▁Victoria":10170,"▁seas":10171,"▁excelencia":10172,"▁limitaciones":10173,"▁divertida":10174,"▁gráficos":10175,"▁solicitudes":10176,"▁gigantes":10177,"▁Cir":10178,"▁World":10179,"ader":10180,"▁pecado":10181,"▁Bru":10182,"▁demandas":10183,"sible":10184,"▁regionales":10185,"▁costumb":10186,"▁inversores":10187,"▁decirlo":10188,"▁crece":10189,"▁ofreció":10190,"▁integrar":10191,"▁arroz":10192,"cista":10193,"▁Mexic":10194,"▁Víctor":10195,"▁arbi":10196,"▁vengan":10197,"▁Dol":10198,"▁inser":10199,"▁Público":10200,"▁Grecia":10201,"▁panel":10202,"▁existente":10203,"▁Panamá":10204,"▁entretenimiento":10205,"▁guarda":10206,"▁aterri":10207,"▁Ib":10208,"▁Indi":10209,"▁Int":10210,"▁Tex":10211,"▁desean":10212,"▁firmado":10213,"▁anuales":10214,"ligencia":10215,"▁triunf":10216,"▁violación":10217,"▁musul":10218,"▁Investigación":10219,"▁Están":10220,"▁electro":10221,"▁denuncias":10222,"▁encontrarse":10223,"▁débil":10224,"▁convirti":10225,"▁legisl":10226,"▁2013,":10227,"▁entrevistas":10228,"▁regulación":10229,"200":10230,"▁Acción":10231,"▁ayudado":10232,"▁Cine":10233,"igh":10234,"▁cura":10235,"▁copa":10236,"▁postu":10237,"urias":10238,"▁posesión":10239,"▁abuelo":10240,"▁ligeramente":10241,"licas":10242,"▁cubierta":10243,"▁recoge":10244,"▁incur":10245,"▁determinadas":10246,"▁artificial":10247,"▁hierro":10248,"undo":10249,"lana":10250,"IEN":10251,"▁oficio":10252,"▁fus":10253,"▁recibieron":10254,"güedad":10255,"Dónde":10256,"ámenes":10257,"▁desac":10258,"ek":10259,"zaba":10260,"▁oscuridad":10261,"▁aconsej":10262,"▁verla":10263,"▁acompañar":10264,"▁falleció":10265,"món":10266,"▁contando":10267,"▁adecuados":10268,"▁fibra":10269,"▁elaborado":10270,"▁vayas":10271,"▁desempeñ":10272,"▁colegas":10273,"▁apreci":10274,"▁Sho":10275,"▁históricos":10276,"▁desaparecer":10277,"▁Tre":10278,"liz":10279,"▁Especial":10280,"▁Castillo":10281,"▁claros":10282,"▁centen":10283,"▁rica":10284,"▁facilit":10285,"TV":10286,"▁salieron":10287,"▁Bajo":10288,"▁descubrimiento":10289,"eth":10290,"▁estupen":10291,"▁republic":10292,"▁comand":10293,"▁Blog":10294,"▁Supongo":10295,"▁clásica":10296,"▁castillo":10297,"▁Todavía":10298,"-201":10299,"▁Far":10300,"▁mantenido":10301,"▁decep":10302,"▁Aun":10303,"▁presupuestos":10304,"▁Posteriormente":10305,"▁sensible":10306,"▁fundament":10307,"▁sensibilidad":10308,"istán":10309,"drome":10310,"▁Turismo":10311,"▁Guer":10312,"▁recurrir":10313,"▁hall":10314,"▁trabajó":10315,"óst":10316,"▁Home":10317,"ponés":10318,"▁vergüenza":10319,"▁revistas":10320,"▁ferro":10321,"▁dólar":10322,"▁compartido":10323,"aming":10324,"▁nosotras":10325,"▁cé":10326,"▁cercanos":10327,"▁pesca":10328,"▁Rol":10329,"▁infantiles":10330,"▁ingeniería":10331,"▁intui":10332,"▁sorprender":10333,"▁construc":10334,"▁típico":10335,"▁llorar":10336,"▁dió":10337,"▁indemn":10338,"▁Samsung":10339,"▁mascar":10340,"▁Laura":10341,"▁invitación":10342,"▁Respon":10343,"▁recal":10344,"▁afili":10345,"▁Patri":10346,"▁fortale":10347,"▁már":10348,"▁sello":10349,"▁verduras":10350,"▁perpe":10351,"▁combinar":10352,"▁colaboradores":10353,"▁uñas":10354,"GO":10355,"cristo":10356,"▁físicos":10357,"▁Inte":10358,"▁saque":10359,"▁supervis":10360,"▁tratan":10361,"▁mandatario":10362,"▁decirte":10363,"▁incorporar":10364,"▁negativos":10365,"▁mejorando":10366,"ets":10367,"▁navegación":10368,"Pres":10369,"▁ira":10370,"▁soportar":10371,"▁corregir":10372,"▁vivía":10373,"▁firmas":10374,"▁Lee":10375,"▁darles":10376,"▁conformidad":10377,"▁rellen":10378,"▁testigo":10379,"tus":10380,"▁sacó":10381,"▁novedad":10382,"▁adecuadas":10383,"▁dejes":10384,"omun":10385,"▁perfiles":10386,"▁reproducción":10387,"▁caído":10388,"▁tranquila":10389,"▁músicos":10390,"▁suple":10391,"▁fases":10392,"▁Che":10393,"▁giro":10394,"▁cens":10395,"▁entrenar":10396,"▁Oh":10397,"▁bolsas":10398,"▁soledad":10399,"▁oficialmente":10400,"poner":10401,"▁Artes":10402,"▁grie":10403,"terno":10404,"▁registrar":10405,"tinas":10406,"aves":10407,"▁monto":10408,"▁Galicia":10409,"fru":10410,"▁42":10411,"▁ester":10412,"▁aparatos":10413,"▁asent":10414,"▁usos":10415,"unas":10416,"▁elimina":10417,"▁comparte":10418,"adáver":10419,"Como":10420,"ders":10421,"▁auténtico":10422,"▁desaparición":10423,"▁encanto":10424,"▁Hugo":10425,"ógico":10426,"▁supuestamente":10427,"▁mensual":10428,"reza":10429,"▁encaj":10430,"▁firmar":10431,"▁financieras":10432,"ésar":10433,"▁Mauri":10434,"▁sabiendo":10435,"esas":10436,"▁lanza":10437,"▁Junto":10438,"▁discutir":10439,"▁capítulos":10440,"erías":10441,"▁Fútbol":10442,"▁certe":10443,"▁creía":10444,"▁coopera":10445,"▁55":10446,"▁patrones":10447,"▁desastre":10448,"▁ponga":10449,"▁considero":10450,"▁agricultura":10451,"stal":10452,"▁intentado":10453,"▁Bay":10454,"▁espiritu":10455,"▁magist":10456,"▁ayudó":10457,"▁territorios":10458,"▁Utiliz":10459,"▁preocupaciones":10460,"▁psico":10461,"▁reseña":10462,"▁éxitos":10463,"▁lee":10464,"GT":10465,"▁Debe":10466,"▁pasará":10467,"▁ayude":10468,"▁facilita":10469,"▁reunir":10470,"▁Oriente":10471,"▁homici":10472,"▁escritos":10473,"ob":10474,"real":10475,"ternidad":10476,"▁(201":10477,"▁plenamente":10478,"▁Comunicación":10479,"▁incómo":10480,"▁cortos":10481,"dura":10482,"▁Simplemente":10483,"▁relevancia":10484,"▁diferenci":10485,"▁novelas":10486,"▁jurídica":10487,"▁recin":10488,"▁desconocido":10489,"▁pidiendo":10490,"▁convencido":10491,"▁positivas":10492,"▁calorías":10493,"▁normalidad":10494,"▁aman":10495,"▁variables":10496,"lito":10497,"emb":10498,"▁Sant":10499,"▁cerró":10500,"▁protocolo":10501,"▁Año":10502,"▁leí":10503,"▁vege":10504,"TM":10505,"▁reflexionar":10506,"dita":10507,"▁Diseño":10508,"▁Latinoamérica":10509,"▁carbono":10510,"▁retorno":10511,"▁Blo":10512,"▁consegu":10513,"ñón":10514,"▁casco":10515,"▁especializada":10516,"▁portátil":10517,"▁250":10518,"▁culturas":10519,"▁inscripción":10520,"▁saliendo":10521,"señ":10522,"▁Biblia":10523,"▁gerente":10524,"lamos":10525,"letos":10526,"▁cadáver":10527,"▁parámetros":10528,"pie":10529,"▁plazos":10530,"▁montaje":10531,"▁Ade":10532,"▁Superior":10533,"▁aseguran":10534,"▁concejal":10535,"▁Gro":10536,"▁nervios":10537,"▁sumamente":10538,"▁compradores":10539,"otas":10540,"▁Cuer":10541,"▁poli":10542,"▁liberación":10543,"▁nombrado":10544,"▁pira":10545,"win":10546,"▁jugada":10547,"▁complej":10548,"▁fresco":10549,"gará":10550,"▁efectivos":10551,"mago":10552,"▁Mercedes":10553,"▁Sy":10554,"▁normales":10555,"▁contener":10556,"▁poseen":10557,"terias":10558,"▁rentabilidad":10559,"▁desgas":10560,"idra":10561,"▁suceder":10562,"▁esquema":10563,"▁Public":10564,"▁Rio":10565,"▁horno":10566,"▁asesoramiento":10567,"▁descubre":10568,"rent":10569,"▁alarma":10570,"▁lámp":10571,"▁Macri":10572,"▁colectivos":10573,"13":10574,"▁2017.":10575,"QU":10576,"▁juris":10577,"▁diplom":10578,"▁aceler":10579,"hal":10580,"trado":10581,"▁pensiones":10582,"▁perj":10583,"▁controver":10584,"traje":10585,"▁navegador":10586,"▁femenina":10587,"▁Debemos":10588,"!\"":10589,"▁increíbles":10590,"▁alemana":10591,"acciones":10592,"▁zo":10593,"decer":10594,"▁Alfonso":10595,"▁integrado":10596,"ív":10597,"▁intenciones":10598,"sea":10599,"▁Fan":10600,"guera":10601,"▁exager":10602,"▁Mara":10603,"▁Sta":10604,"▁argument":10605,"▁Joa":10606,"▁dias":10607,"▁extrema":10608,"▁locura":10609,"▁traslado":10610,"OP":10611,"▁rompi":10612,"pel":10613,"▁costumbres":10614,"▁8,":10615,"incl":10616,"dulo":10617,"▁jueces":10618,"▁sorprendió":10619,"▁actualizar":10620,"▁toler":10621,"▁posicionamiento":10622,"▁influen":10623,"▁adulto":10624,"▁maravilla":10625,"▁Dicho":10626,"▁volverá":10627,"▁eva":10628,"▁sostiene":10629,"▁Franco":10630,"▁acomo":10631,"▁impedir":10632,"▁César":10633,"ms":10634,"▁presidencial":10635,"▁destruir":10636,"▁lac":10637,"tela":10638,"▁cometido":10639,"▁interpretar":10640,"▁0.":10641,"▁jajaja":10642,"▁cuadrados":10643,"▁dictadura":10644,"rena":10645,"▁describir":10646,"▁medias":10647,"▁cálculo":10648,"▁industriales":10649,"▁revela":10650,"▁soñ":10651,"▁prin":10652,"▁queridos":10653,"▁cubre":10654,"▁exigir":10655,"14":10656,"▁aprobó":10657,"▁confirmado":10658,"▁dolores":10659,"▁vean":10660,"▁condena":10661,"▁defecto":10662,"igma":10663,"▁gloria":10664,"▁Ri":10665,"▁dirigente":10666,"▁obstáculos":10667,"▁Wa":10668,"ural":10669,"▁especializado":10670,"orada":10671,"oncesto":10672,"▁fruta":10673,"▁gafas":10674,"▁pañ":10675,"▁decreto":10676,"▁Buenas":10677,"mós":10678,"▁rapidez":10679,"▁ecos":10680,"▁ranking":10681,"▁contun":10682,"▁domést":10683,"límp":10684,"▁flexibilidad":10685,"cuenta":10686,"ordi":10687,"Sí":10688,"▁sano":10689,"▁refiero":10690,"▁Tro":10691,"UL":10692,"▁cadenas":10693,"▁Sierra":10694,"▁Lucas":10695,"▁pico":10696,"▁tocó":10697,"trina":10698,"fu":10699,"▁queso":10700,"▁popularidad":10701,"▁geo":10702,"▁visitante":10703,"▁provocó":10704,"áz":10705,"▁componente":10706,"vangelio":10707,"FA":10708,"▁alianza":10709,"ku":10710,"tube":10711,"▁seleccionado":10712,"▁participado":10713,"▁Gusta":10714,"▁refres":10715,"▁complemento":10716,"eda":10717,"▁Rob":10718,"hay":10719,"▁sabiduría":10720,"▁2004":10721,"▁Obs":10722,"▁juegan":10723,"▁cruzar":10724,"▁considerada":10725,"▁instantán":10726,"oya":10727,"▁practic":10728,"▁envuel":10729,"▁manifestaciones":10730,"▁trabajamos":10731,"▁Olímp":10732,"▁indispensable":10733,"tti":10734,"▁celebró":10735,"onía":10736,"orado":10737,"▁energética":10738,"▁Caribe":10739,"▁separado":10740,"▁Obama":10741,"▁feria":10742,"gén":10743,"▁(5":10744,"▁ejemplares":10745,"▁fundador":10746,"▁académico":10747,"ulos":10748,"▁significativo":10749,"▁declarado":10750,"▁poderoso":10751,"▁Prob":10752,"▁manga":10753,"▁800":10754,"íe":10755,"aros":10756,"dom":10757,"▁apostar":10758,"íz":10759,"▁situada":10760,"▁excur":10761,"tendo":10762,"▁ligero":10763,"▁Cr":10764,"▁quedando":10765,"vios":10766,"▁madrile":10767,"▁sanciones":10768,"▁negar":10769,"▁Mark":10770,"▁caza":10771,"ciosa":10772,"abuena":10773,"▁costado":10774,"▁convierten":10775,"▁Gri":10776,"▁Maes":10777,"ódigos":10778,"▁colectiva":10779,"▁pasta":10780,"▁Mayo":10781,"▁ocasion":10782,"▁trage":10783,"▁radical":10784,"▁potenciales":10785,"▁Guate":10786,"cionada":10787,"▁enseña":10788,"▁10%":10789,"▁gasolina":10790,"polit":10791,"íso":10792,"▁terminal":10793,"▁pedidos":10794,"▁duer":10795,"▁excusa":10796,"▁apasion":10797,"▁automática":10798,"▁propuesto":10799,"▁lindo":10800,"▁Exper":10801,"▁lágrimas":10802,"▁tarifa":10803,"▁tún":10804,"▁ron":10805,"▁180":10806,"▁exámenes":10807,"▁Morales":10808,"▁poeta":10809,"▁entendido":10810,"▁Din":10811,"▁partícu":10812,"▁reen":10813,"▁continuó":10814,"▁precip":10815,"seguida":10816,"▁Murcia":10817,"abetes":10818,"tional":10819,"úblic":10820,"▁pulgadas":10821,"▁Boca":10822,"ith":10823,"▁secuest":10824,"▁bastantes":10825,"▁seco":10826,"íficas":10827,"ford":10828,"▁americano":10829,"▁intr":10830,"▁observación":10831,"xy":10832,"▁PIB":10833,"cú":10834,"▁desierto":10835,"▁conductores":10836,"▁enm":10837,"▁rescate":10838,"▁ordin":10839,"terráneo":10840,"▁Rico":10841,"▁establecidos":10842,"▁codi":10843,"▁acorde":10844,"▁Miami":10845,"ígenes":10846,"zi":10847,"▁guion":10848,"▁remedio":10849,"▁HD":10850,"▁equivalente":10851,"▁turístico":10852,"▁catalán":10853,"inamiento":10854,"▁provis":10855,"▁Revolución":10856,"▁2011,":10857,"ise":10858,"queros":10859,"▁aerol":10860,"▁japonés":10861,"▁Loren":10862,"cidades":10863,"▁chat":10864,"▁fortaleza":10865,"▁Igna":10866,"▁ciencias":10867,"gancia":10868,"▁Zapa":10869,"▁apartamento":10870,"▁detenidos":10871,"▁complejos":10872,"éu":10873,"venido":10874,"▁atmós":10875,"▁Med":10876,"cionó":10877,"▁vinos":10878,"uerta":10879,"aré":10880,"▁preciosa":10881,"▁aprendiendo":10882,"Cuáles":10883,"▁publica":10884,"▁Dom":10885,"▁consola":10886,"▁fes":10887,"▁creativo":10888,"▁My":10889,"▁tem":10890,"▁comisiones":10891,"▁moverse":10892,"▁poblaciones":10893,"▁urgente":10894,"▁gimnasio":10895,"▁generando":10896,"▁cuyas":10897,"▁ara":10898,"▁abon":10899,"16":10900,"▁Gan":10901,"tarias":10902,"▁botella":10903,"▁Tour":10904,"pones":10905,"▁emisión":10906,"▁bonos":10907,"vada":10908,"cran":10909,"▁aumentando":10910,"▁dedicación":10911,"▁voluntarios":10912,"▁reparto":10913,"▁continuo":10914,"▁destacados":10915,"▁redon":10916,"▁tardes":10917,"▁rehabilitación":10918,"ueven":10919,"▁aumentado":10920,"▁asegurado":10921,"▁mach":10922,"▁Peter":10923,"mart":10924,"▁rumores":10925,"▁LED":10926,"▁cuartos":10927,"▁inal":10928,"▁vocación":10929,"▁rodea":10930,"▁núcleo":10931,"▁comparten":10932,"▁estatales":10933,"▁contraseña":10934,"▁Demo":10935,"tándose":10936,"▁Ruiz":10937,"▁juvenil":10938,"ical":10939,"▁UR":10940,"▁sépti":10941,"▁liqu":10942,"▁Rica":10943,"▁XXI":10944,"▁pí":10945,"▁episodios":10946,"▁manz":10947,"dando":10948,"▁parale":10949,"▁Autor":10950,"▁esqui":10951,"▁lago":10952,"▁conlleva":10953,"ADO":10954,"▁agrup":10955,"▁obtiene":10956,"estima":10957,"▁batal":10958,"▁2016.":10959,"▁rup":10960,"▁futuras":10961,"vimiento":10962,"▁Tienen":10963,"▁by":10964,"kes":10965,"▁2010,":10966,"▁Ministro":10967,"▁intensa":10968,"ucristo":10969,"▁proyección":10970,"▁deberás":10971,"▁Canarias":10972,"▁litros":10973,"▁inmer":10974,"▁revi":10975,"▁pagan":10976,"▁legí":10977,"▁entera":10978,"flix":10979,"▁Realmente":10980,"▁pierna":10981,"▁cocinar":10982,"▁desaparecido":10983,"rías":10984,"sel":10985,"omosex":10986,"dicas":10987,"▁ensayo":10988,"▁creador":10989,"18":10990,"uertos":10991,"▁muro":10992,"▁Alic":10993,"▁foco":10994,"▁bebida":10995,"tarán":10996,"▁sobresal":10997,"▁descubrió":10998,"▁nariz":10999,"▁enfrenta":11000,"▁discur":11001,"irch":11002,"▁supi":11003,"▁Turquía":11004,"▁Vida":11005,"▁Alba":11006,"▁Encon":11007,"▁alfomb":11008,"▁estableció":11009,"▁Marco":11010,"RO":11011,"▁débi":11012,"▁ocio":11013,"▁urgencia":11014,"▁FC":11015,"▁Princip":11016,"▁contienen":11017,"▁Hacer":11018,"▁cuero":11019,"▁semillas":11020,"▁volante":11021,"▁victorias":11022,"▁Feder":11023,"▁20%":11024,"▁sobretodo":11025,"áus":11026,"▁casualidad":11027,"EA":11028,"▁camar":11029,"▁etiqueta":11030,"tega":11031,"teos":11032,"▁trate":11033,"▁reputación":11034,"▁39":11035,"▁pescado":11036,"▁obvio":11037,"ult":11038,"Mu":11039,"▁Irán":11040,"▁mascotas":11041,"pue":11042,"▁Marcos":11043,"▁Guadal":11044,"▁jab":11045,"ila":11046,"▁adentro":11047,"▁Guatemala":11048,"ampions":11049,"▁Of":11050,"▁reivindi":11051,"▁inicialmente":11052,"SA":11053,"itcoin":11054,"▁aparentemente":11055,"▁43":11056,"eto":11057,"▁déci":11058,"▁jurado":11059,"dista":11060,"iciones":11061,"iéndose":11062,"vist":11063,"▁preca":11064,"▁Cató":11065,"▁llenar":11066,"▁Aragón":11067,"▁empi":11068,"▁mencionó":11069,"▁trámite":11070,"▁caballos":11071,"ép":11072,"▁socialista":11073,"▁Sigue":11074,"▁Gustavo":11075,"▁Palab":11076,"ings":11077,"▁escolares":11078,"▁darnos":11079,"▁simultán":11080,"▁sostener":11081,"onedas":11082,"yu":11083,"▁Fuente":11084,"▁League":11085,"▁matemáticas":11086,"ribunales":11087,"▁Amor":11088,"▁tecnológico":11089,"▁tomo":11090,"▁adj":11091,"écdo":11092,"lace":11093,"tines":11094,"75":11095,"imal":11096,"▁culpable":11097,"ínas":11098,"umb":11099,"rosa":11100,"▁Raj":11101,"piro":11102,"▁complicada":11103,"▁acaban":11104,"▁naranja":11105,"▁Isla":11106,"▁épocas":11107,"dezco":11108,"▁encontraban":11109,"nia":11110,"ositor":11111,"▁Donald":11112,":.":11113,"▁religiosa":11114,"▁únicas":11115,"▁correos":11116,"radora":11117,"▁terrenos":11118,"ramiento":11119,"▁clan":11120,"▁desvent":11121,"▁indirec":11122,"gico":11123,"igan":11124,"▁presentaron":11125,"▁directiva":11126,"▁avanzada":11127,"ándolos":11128,"▁empezamos":11129,"▁profesora":11130,"rum":11131,"▁Lar":11132,"▁concreta":11133,"cionistas":11134,"Esta":11135,"▁crecido":11136,"▁ceb":11137,"▁extender":11138,"▁ape":11139,"▁entrenamientos":11140,"▁medioambi":11141,"IV":11142,"ficado":11143,"▁Convención":11144,"▁piensas":11145,"▁peces":11146,"▁perdida":11147,"▁alturas":11148,"▁Stre":11149,"▁sirvió":11150,"▁pere":11151,"dones":11152,"▁existía":11153,"▁reduc":11154,"▁argentinos":11155,"▁preocupes":11156,"▁actúa":11157,"▁verificar":11158,"▁papa":11159,"▁olvides":11160,"▁carreteras":11161,"MO":11162,"▁castellano":11163,"▁restr":11164,"▁Berlín":11165,"▁Has":11166,"mann":11167,"▁sar":11168,"▁tome":11169,"▁galard":11170,"éticas":11171,"▁Jesucristo":11172,"▁audiovis":11173,"alición":11174,"quita":11175,"▁habiendo":11176,"róf":11177,"▁consiguiente":11178,"▁Presu":11179,"▁baterías":11180,"▁incendio":11181,"▁amarillo":11182,"▁circunstancia":11183,"▁llegaba":11184,"▁fijar":11185,"▁modernos":11186,"▁Castel":11187,"▁registró":11188,"horabuena":11189,"▁hermanas":11190,"▁Facultad":11191,"▁--":11192,"▁mejorado":11193,"▁estaremos":11194,"▁desarrolló":11195,"▁deportivos":11196,"▁mensaj":11197,"▁Campeonato":11198,"▁quinta":11199,"▁conoces":11200,"▁rasgos":11201,"▁necesite":11202,"▁migra":11203,"▁ministerio":11204,"▁Jen":11205,"▁cuotas":11206,"▁custo":11207,"▁entusiasmo":11208,"▁protesta":11209,"▁sillas":11210,"tena":11211,"guero":11212,"▁mini":11213,"▁tocado":11214,"sivos":11215,"▁dirigió":11216,"▁Luz":11217,"▁hisp":11218,"▁promesa":11219,"chu":11220,"▁llamaba":11221,"▁cinemato":11222,"▁pantallas":11223,"▁occidental":11224,"▁disfrutando":11225,"▁huelga":11226,"▁sube":11227,"▁sintió":11228,"▁proporción":11229,"?\".":11230,"▁higiene":11231,"▁hec":11232,"▁saludables":11233,"▁colch":11234,"▁semb":11235,"▁Pac":11236,"▁cali":11237,"▁llave":11238,"▁auxil":11239,"▁suponer":11240,"▁experimentado":11241,"▁refirió":11242,"▁participan":11243,"hen":11244,"SE":11245,"▁Unos":11246,"▁salidas":11247,"GA":11248,"▁lluvias":11249,"▁sencillos":11250,"▁Interior":11251,"▁Barça":11252,"▁ayudarán":11253,"▁Hijo":11254,"▁ducha":11255,"urado":11256,"▁Rivera":11257,"Su":11258,"▁especializados":11259,"untamente":11260,"▁disfruta":11261,"▁Auto":11262,"▁ética":11263,"▁Ignacio":11264,"▁operadores":11265,"▁probabilidad":11266,"▁trámites":11267,"▁asegurarse":11268,"▁chu":11269,"▁guardia":11270,"▁considerando":11271,"▁inneces":11272,"▁44":11273,"gol":11274,"▁escribiendo":11275,"cing":11276,"▁justamente":11277,"▁pintar":11278,"▁talentos":11279,"▁talla":11280,"stein":11281,"▁homosex":11282,"▁amante":11283,"▁superado":11284,"gadores":11285,"▁cotidiana":11286,"mería":11287,"pica":11288,"▁certeza":11289,"vers":11290,"▁Clas":11291,"▁pensó":11292,"▁preparando":11293,"▁pensión":11294,"▁Chá":11295,"uto":11296,"CIA":11297,"▁centrar":11298,"alizando":11299,"▁animación":11300,"▁Siguiente":11301,"▁Pap":11302,"▁pist":11303,"▁Sociales":11304,"▁rurales":11305,"▁vulnerables":11306,"▁CR":11307,"▁Flores":11308,"tita":11309,"▁advirtió":11310,"ani":11311,"▁Const":11312,"▁invitado":11313,"▁Stu":11314,"▁críticos":11315,"▁leve":11316,"▁saca":11317,"ázquez":11318,"▁Record":11319,"▁2015.":11320,"▁artística":11321,"▁direcciones":11322,"▁auténtica":11323,"▁guión":11324,"▁Tru":11325,"▁captura":11326,"ánicos":11327,"▁pudiendo":11328,"▁trem":11329,"▁exce":11330,"▁sor":11331,"▁pido":11332,"uth":11333,"▁vicepresidente":11334,"▁crimin":11335,"▁gráfica":11336,"▁deca":11337,"▁fieles":11338,"▁Igu":11339,"▁natal":11340,"▁redacción":11341,"imp":11342,"▁alegro":11343,"▁falso":11344,"▁emis":11345,"▁tapa":11346,"▁departamentos":11347,"▁impide":11348,"▁ajustes":11349,"▁acepta":11350,"▁consentimiento":11351,"▁sitúa":11352,"▁aborto":11353,"mestre":11354,"vaciones":11355,"▁europeas":11356,"▁robar":11357,"▁compleja":11358,"▁Sco":11359,"▁concluir":11360,"▁atmósfera":11361,"▁pierdas":11362,"▁directivos":11363,"▁disparo":11364,"▁choque":11365,"▁manifestación":11366,"▁huesos":11367,"sign":11368,"▁Dijo":11369,"omi":11370,"▁Holly":11371,"▁instalado":11372,"▁explicaciones":11373,"▁afric":11374,"\";":11375,"▁Jaime":11376,"▁anécdo":11377,"▁entran":11378,"▁irri":11379,"▁pisos":11380,"▁gradu":11381,"▁monet":11382,"tea":11383,"▁manio":11384,"Esto":11385,"▁alemanes":11386,"▁resistente":11387,"▁dependerá":11388,"▁debían":11389,"▁capas":11390,"▁interfaz":11391,"▁veget":11392,"▁Digital":11393,"▁aula":11394,"tanos":11395,"▁cón":11396,"▁Mauricio":11397,"▁obligatorio":11398,"▁provocado":11399,"▁complejidad":11400,"▁Canal":11401,"▁Conferencia":11402,"▁olvidado":11403,"▁habrían":11404,"▁Mendo":11405,"▁Marta":11406,"▁brillo":11407,"▁Lorenzo":11408,"▁Netflix":11409,"▁abar":11410,"▁cuarenta":11411,"▁sombras":11412,"▁enfermos":11413,"▁denominado":11414,"adir":11415,"▁maestra":11416,"▁River":11417,"▁Nintendo":11418,"▁actualizaciones":11419,"▁Control":11420,"▁limitada":11421,"ariado":11422,"▁apellido":11423,"▁Sabemos":11424,"▁pacto":11425,"▁sigan":11426,"▁mostrando":11427,"izas":11428,"umas":11429,"▁rastre":11430,"remo":11431,"▁deudas":11432,"▁reconocida":11433,"▁Ll":11434,"▁heridos":11435,"▁hueco":11436,"▁die":11437,".\".":11438,"▁cincuenta":11439,"▁solitario":11440,"▁colonia":11441,"inter":11442,"▁últimamente":11443,"ray":11444,"▁curva":11445,"▁periodismo":11446,"▁Alfre":11447,"▁finanzas":11448,"▁conexiones":11449,"▁creció":11450,"cate":11451,"▁tecnológica":11452,"▁Empez":11453,"iosos":11454,"▁llevarse":11455,"▁bordo":11456,"▁sumerg":11457,"▁incidencia":11458,"▁Mercado":11459,"▁Álvarez":11460,"▁devolución":11461,"-20":11462,"▁dejaba":11463,"▁2003":11464,"95":11465,"▁acompaña":11466,"ián":11467,"▁Pueden":11468,"caden":11469,"▁box":11470,"▁interiores":11471,"▁antecedentes":11472,"▁relativa":11473,"▁ficha":11474,"▁manej":11475,"TER":11476,"▁Ran":11477,"▁Mej":11478,"▁Bes":11479,"▁transforma":11480,"▁tradiciones":11481,"▁incidente":11482,"▁prec":11483,"▁retiro":11484,"▁decidimos":11485,"▁semestre":11486,"▁remar":11487,"▁delegación":11488,"▁sensor":11489,"▁alegra":11490,"clo":11491,"▁Tok":11492,"zación":11493,"▁mascota":11494,"▁escritores":11495,"▁ciudadana":11496,"cidente":11497,"▁buscamos":11498,"▁emprendedores":11499,"▁siglas":11500,"▁narco":11501,"▁pion":11502,"pio":11503,"▁dulces":11504,"ander":11505,"▁exista":11506,"▁Valent":11507,"sh":11508,"▁servido":11509,"▁nad":11510,"▁Regl":11511,"▁códigos":11512,"▁ola":11513,"▁cambian":11514,"▁accesible":11515,"riles":11516,"▁misiones":11517,"iempo":11518,"▁manifiesto":11519,"tte":11520,"gués":11521,"▁supervivencia":11522,"▁despues":11523,"▁invita":11524,"▁afirmar":11525,"▁junta":11526,"organ":11527,"GB":11528,"úme":11529,"bao":11530,"▁excepcional":11531,"▁ligera":11532,"▁bono":11533,"▁vaso":11534,"▁acercarse":11535,"porque":11536,"▁trató":11537,"▁autónomos":11538,"▁estó":11539,"▁Suiza":11540,"▁océ":11541,"▁tard":11542,"▁madu":11543,"▁rayos":11544,"cible":11545,"▁alrededores":11546,"▁sacerdote":11547,"avi":11548,"▁Regional":11549,"▁Gir":11550,"▁afectada":11551,"▁filas":11552,"▁adecuadamente":11553,"dirá":11554,"▁aur":11555,"anim":11556,"irchner":11557,"▁Die":11558,"▁odi":11559,"▁Guti":11560,"▁concretamente":11561,"Gra":11562,"TC":11563,"▁Ambiente":11564,"▁decían":11565,"work":11566,"▁reporte":11567,"vic":11568,"▁permis":11569,"▁protocol":11570,"▁parques":11571,"▁contestar":11572,"▁Podría":11573,"▁subió":11574,"▁comunicar":11575,"▁trucos":11576,"▁exigencias":11577,"▁organizada":11578,"▁sindicatos":11579,"isla":11580,"▁reacciones":11581,"elle":11582,"▁alza":11583,"inio":11584,"▁razonable":11585,"▁Chávez":11586,"▁fallecido":11587,"▁Apo":11588,"logos":11589,"tios":11590,"▁Alto":11591,"trans":11592,"▁sabéis":11593,"▁faltan":11594,"cionista":11595,"pido":11596,"▁jefes":11597,"▁externa":11598,"▁galle":11599,"▁Rena":11600,"▁privileg":11601,"dirse":11602,"▁confirma":11603,"▁continuamente":11604,"▁británica":11605,"▁melo":11606,"▁conmo":11607,"▁limpi":11608,"▁entregó":11609,"▁demostró":11610,"▁apoya":11611,"▁visibilidad":11612,"▁invis":11613,"▁imagino":11614,"▁periódicos":11615,"logías":11616,"▁termine":11617,"▁aprende":11618,"▁taba":11619,"▁habitualmente":11620,"gni":11621,"▁Mendoza":11622,"ígeno":11623,"▁exclusivo":11624,"guardia":11625,"▁asequi":11626,"tander":11627,"▁vuestras":11628,"▁favorita":11629,"▁desarrollan":11630,"▁relatos":11631,"▁instituto":11632,"terio":11633,"▁servidores":11634,"▁diabetes":11635,"▁traspas":11636,"▁1.000":11637,"▁calcul":11638,"▁andalu":11639,"▁unido":11640,"▁sorprende":11641,"▁variar":11642,"landia":11643,"▁hormi":11644,"▁agru":11645,"▁humanas":11646,"▁9,":11647,"▁recre":11648,"▁Log":11649,"vecha":11650,"▁Recuerdo":11651,"▁aprovechando":11652,"▁Blanco":11653,"ímp":11654,"lip":11655,"▁prioridades":11656,"▁hacernos":11657,"▁asesino":11658,"▁favorable":11659,"iebre":11660,"▁determinación":11661,"▁Port":11662,"▁pop":11663,"▁iniciado":11664,"▁darme":11665,"▁actitudes":11666,"▁luchando":11667,"▁novedos":11668,"▁singular":11669,"▁identificado":11670,"▁automóviles":11671,"▁hombros":11672,"ividad":11673,"▁emprender":11674,"▁fantástico":11675,"▁automático":11676,"▁asociado":11677,"▁hipótesis":11678,"▁árbi":11679,"▁conservar":11680,"▁solucion":11681,"▁sanitario":11682,"▁semifin":11683,"▁comité":11684,"▁hallaz":11685,"▁Max":11686,"▁potenciar":11687,"▁dioses":11688,"▁Agust":11689,"▁extremos":11690,"▁constitucional":11691,"▁resultan":11692,"PN":11693,"▁recinto":11694,"▁Recom":11695,"▁Deci":11696,"▁esfor":11697,"icar":11698,"▁bella":11699,"▁intentos":11700,"▁Mul":11701,"olvid":11702,"▁pronunci":11703,"▁generó":11704,"24":11705,"▁predomin":11706,"▁Diario":11707,"▁fuga":11708,"cías":11709,"▁contraste":11710,"▁placa":11711,"▁evita":11712,"amar":11713,"▁alu":11714,"▁protestas":11715,"▁sacado":11716,"ámb":11717,"▁transformar":11718,"asa":11719,"▁pelu":11720,"▁acaso":11721,"▁variable":11722,"▁preferencias":11723,"lamente":11724,"eck":11725,"▁restauración":11726,"▁pastel":11727,"▁diarias":11728,"▁renuncia":11729,"▁Sería":11730,"▁chav":11731,"alizan":11732,"▁Marcelo":11733,"▁azar":11734,"muy":11735,"▁presi":11736,"dices":11737,"17":11738,"icana":11739,"▁justa":11740,"▁tea":11741,"2)":11742,"▁arreglo":11743,"▁espada":11744,"▁mecánica":11745,"▁flam":11746,"ógica":11747,"▁semejante":11748,"▁faltar":11749,"▁entrado":11750,"mico":11751,"▁estemos":11752,"▁conta":11753,"▁hable":11754,"▁teorías":11755,"▁concesión":11756,"alla":11757,"▁retraso":11758,"▁secundarios":11759,"▁duros":11760,"ricas":11761,"▁fraude":11762,"chila":11763,"▁incluidas":11764,"▁centra":11765,"▁despre":11766,"Fi":11767,"▁barro":11768,"▁explosión":11769,"hum":11770,"▁vapor":11771,"ledo":11772,"Estoy":11773,"plan":11774,"1)":11775,"▁Seguramente":11776,"▁sil":11777,"▁ER":11778,"Mar":11779,"▁ácido":11780,"▁recibiendo":11781,"▁Jiménez":11782,"▁Sony":11783,"▁Cro":11784,"▁someter":11785,"▁pantalones":11786,"▁planos":11787,"▁disfrute":11788,"ata":11789,"▁Siria":11790,"▁concretas":11791,"demi":11792,"ilan":11793,"adi":11794,"gaba":11795,"▁camión":11796,"▁antigüedad":11797,"▁trasera":11798,"▁nacer":11799,"▁huevo":11800,"▁armonía":11801,"landa":11802,"▁autoestima":11803,"...,":11804,"▁calcular":11805,"▁Il":11806,"▁atravi":11807,"▁simb":11808,"▁intervenciones":11809,"▁líqu":11810,"▁simpli":11811,"▁empo":11812,"▁sustituir":11813,"▁tripul":11814,"▁Univers":11815,"terial":11816,"▁copias":11817,"▁motos":11818,"▁jurídico":11819,"▁definitivo":11820,"bri":11821,"▁Provincia":11822,"▁infi":11823,"▁terrorismo":11824,"lecomun":11825,"vientes":11826,"▁\".":11827,"▁futura":11828,"▁bloqueo":11829,"▁paisajes":11830,"rible":11831,"▁Igualmente":11832,"▁lentamente":11833,"▁conferencias":11834,"▁cerrada":11835,"▁nuclear":11836,"▁insec":11837,"▁minimi":11838,"▁PARA":11839,"▁ediciones":11840,"cons":11841,"▁presentamos":11842,"quillo":11843,"▁configurar":11844,"ándoles":11845,"▁evolucion":11846,"▁ret":11847,".»":11848,"▁Mol":11849,"puestas":11850,"▁Champions":11851,"▁compañera":11852,"▁Públic":11853,"▁Eres":11854,"▁titulado":11855,"▁Sent":11856,"▁2008,":11857,"▁sustan":11858,"▁funcionando":11859,"ME":11860,"▁lici":11861,"melo":11862,"▁húme":11863,"▁temprana":11864,"▁Existe":11865,"▁ayuntamiento":11866,"▁desarrolladores":11867,"▁agrega":11868,"gable":11869,"▁apuntó":11870,"▁duplic":11871,"▁presentaciones":11872,"colas":11873,"▁hidro":11874,"▁Hombre":11875,"rich":11876,"▁persecu":11877,"▁directos":11878,"oneta":11879,"▁Zo":11880,"▁bonitas":11881,"▁israel":11882,"▁causado":11883,"▁destro":11884,"sticas":11885,"uega":11886,"▁complicaciones":11887,"▁agradecimiento":11888,"▁tecnológicos":11889,"▁respiración":11890,"▁humilde":11891,"Ser":11892,"quería":11893,"ania":11894,"▁1000":11895,"▁enveje":11896,"▁haré":11897,"▁abandono":11898,"▁destinados":11899,"▁rara":11900,"▁constituyen":11901,"▁negó":11902,"▁confusión":11903,"▁estómago":11904,"▁secciones":11905,"atch":11906,"toriales":11907,"▁encam":11908,"▁sugiere":11909,"▁Conce":11910,"▁semin":11911,"▁saltar":11912,"▁notific":11913,"▁herencia":11914,"▁CU":11915,"▁Lic":11916,"▁llego":11917,"▁haremos":11918,"gena":11919,"▁Abra":11920,"▁vidrio":11921,"▁menciona":11922,"▁bares":11923,"▁refugio":11924,"▁conversión":11925,"dical":11926,"▁cierra":11927,"▁prosper":11928,"▁discí":11929,"▁crey":11930,"ife":11931,"▁rápidos":11932,"bimos":11933,"▁tienden":11934,"▁Probablemente":11935,"▁improvis":11936,"▁quita":11937,"▁llenos":11938,"▁culto":11939,"crip":11940,"▁miel":11941,"▁humo":11942,"▁condenado":11943,"▁Asturias":11944,"▁tomaron":11945,"py":11946,"▁pájar":11947,"▁coj":11948,"▁proviene":11949,"▁ocupado":11950,"▁Pie":11951,"▁sacrificio":11952,"▁tragedia":11953,"▁enfermo":11954,"▁china":11955,"pedia":11956,"ulsión":11957,"mm":11958,"▁coloca":11959,"▁renunciar":11960,"▁paquetes":11961,"▁calificación":11962,"▁respecta":11963,"▁uniforme":11964,"▁héroe":11965,"▁prefieren":11966,"ls":11967,"▁ida":11968,"▁Deber":11969,"▁detección":11970,"▁into":11971,"▁averiguar":11972,"▁automa":11973,"▁encuentren":11974,"▁LE":11975,"▁64":11976,"▁Jefe":11977,"▁Chica":11978,"▁urbana":11979,"uez":11980,"▁inferiores":11981,"▁caz":11982,"ésped":11983,"dada":11984,"anal":11985,"▁directores":11986,"▁credi":11987,"▁Natural":11988,"▁oral":11989,"▁regresó":11990,"▁reseñas":11991,"▁sanción":11992,"▁aportan":11993,"tez":11994,"dere":11995,"▁obligados":11996,"▁merecen":11997,"vierte":11998,"▁ADN":11999,"▁extraordinario":12000,"▁Us":12001,"ándalo":12002,"▁Espa":12003,"cientemente":12004,"▁ampliamente":12005,"▁conduce":12006,"▁significativa":12007,"ítulo":12008,"▁armario":12009,"▁falla":12010,"▁portero":12011,"▁lleguen":12012,"▁Sky":12013,"▁tejidos":12014,"▁caminando":12015,"▁encarga":12016,"▁noble":12017,"kers":12018,"▁Suárez":12019,"▁terminan":12020,"▁celebrado":12021,"▁Presidencia":12022,"grafi":12023,"arización":12024,"▁sistem":12025,"tipos":12026,"▁Florida":12027,"▁Deportivo":12028,"▁UU":12029,"▁188":12030,"▁engañ":12031,"▁proteínas":12032,"▁teclado":12033,"bano":12034,"▁negociar":12035,"▁remun":12036,"▁negoci":12037,"▁click":12038,"▁negativas":12039,"▁Romero":12040,"▁ingeniero":12041,"▁Rajoy":12042,"ínsula":12043,"▁Vale":12044,"▁realice":12045,"▁Hollywood":12046,"▁banca":12047,"▁prestigio":12048,"▁calzado":12049,"▁bis":12050,"Ma":12051,"▁mediano":12052,"izos":12053,"▁orque":12054,"▁30%":12055,"-5":12056,"delidad":12057,"▁Atención":12058,"▁Normalmente":12059,"▁perspectivas":12060,"▁realizarse":12061,"EP":12062,"gina":12063,"▁comienzos":12064,"tablemente":12065,"▁you":12066,"▁Vuel":12067,"▁falsa":12068,"▁cristiana":12069,"▁neumáticos":12070,"▁conectado":12071,"▁músico":12072,"licidad":12073,"▁Mariano":12074,"▁Oficial":12075,"▁POR":12076,"▁autop":12077,"▁citado":12078,"uimos":12079,"▁suman":12080,"▁Bás":12081,"▁Quien":12082,"fitri":12083,"▁artístico":12084,"▁hectá":12085,"▁titulares":12086,"▁propuso":12087,"mbolos":12088,"▁reflejo":12089,"▁Eli":12090,"▁tamaños":12091,"▁uruguay":12092,"▁psicología":12093,"▁restring":12094,"iler":12095,"aduras":12096,"▁ríos":12097,"▁Recor":12098,"▁Ramos":12099,"▁psi":12100,"▁externos":12101,"▁aprue":12102,"dest":12103,"▁Stan":12104,"▁Jean":12105,"▁ramas":12106,"ENT":12107,"itamos":12108,"▁adapta":12109,"▁químicos":12110,"▁crip":12111,"▁satisfecho":12112,"▁despacho":12113,"▁Estudios":12114,"▁iOS":12115,"larse":12116,"▁2009,":12117,"▁Richard":12118,"▁link":12119,"cron":12120,"▁presion":12121,"fia":12122,"ÍA":12123,"▁orígenes":12124,"▁confinamiento":12125,"▁desvi":12126,"olas":12127,"▁inseguridad":12128,"▁tesis":12129,"▁diseñador":12130,"▁confec":12131,"▁buscador":12132,"▁Exp":12133,"▁ensayos":12134,"▁caos":12135,"▁constantes":12136,"ucturas":12137,"▁consenso":12138,"▁otorga":12139,"▁Human":12140,"▁agil":12141,"▁segmento":12142,"▁ambientales":12143,"uses":12144,"▁Reina":12145,"▁prece":12146,"▁dur":12147,"▁Ki":12148,"▁Coment":12149,"▁integridad":12150,"tuoso":12151,"hesión":12152,"▁colabora":12153,"▁tormenta":12154,"▁Libro":12155,"▁expresiones":12156,"▁lección":12157,"▁Imperio":12158,"lán":12159,"▁pertenecen":12160,"▁reír":12161,"▁aliados":12162,"▁relativo":12163,"▁eléctricas":12164,"▁unidos":12165,"▁Comen":12166,"▁llegué":12167,"▁Pay":12168,"▁prefiero":12169,"ajara":12170,"▁transparente":12171,"dario":12172,"▁mínimos":12173,"▁oxígeno":12174,"▁funcione":12175,"▁Sea":12176,"▁terremo":12177,"▁inflam":12178,"▁continúan":12179,"▁firmó":12180,"▁permitiendo":12181,"▁jardines":12182,"▁investigador":12183,"▁bloques":12184,"▁Parte":12185,"italización":12186,"ath":12187,"▁King":12188,"▁Tratado":12189,"jón":12190,"▁partículas":12191,"▁vendido":12192,"\"...":12193,"▁estudiando":12194,"tentes":12195,"ceta":12196,"▁cro":12197,"▁castigo":12198,"▁corazones":12199,"▁trajo":12200,"írez":12201,"▁encontrará":12202,"▁Rodri":12203,"▁pagado":12204,"▁compres":12205,"▁franquicia":12206,"▁bode":12207,"▁ajustar":12208,"▁renovar":12209,"▁blancas":12210,"xa":12211,"▁Reglamento":12212,"▁Bi":12213,"▁desperdi":12214,"▁sorteo":12215,"▁espacial":12216,"▁Sos":12217,"▁brutal":12218,"istemas":12219,"▁rincón":12220,"▁compatible":12221,"▁Bilbao":12222,"▁Santander":12223,"▁Marina":12224,"▁sorpresas":12225,"▁anunciar":12226,"▁Fuerza":12227,"▁conjunta":12228,"▁Judi":12229,"▁tiende":12230,"▁salsa":12231,"▁optimizar":12232,"▁funda":12233,"▁baloncesto":12234,"65":12235,"▁facul":12236,"▁compuesta":12237,"▁dejarlo":12238,"▁localizar":12239,"▁palacio":12240,"▁encantó":12241,"▁PRO":12242,"pada":12243,"▁brasileño":12244,"▁proceder":12245,"ólico":12246,"▁feder":12247,"▁géneros":12248,"▁Acuerdo":12249,"▁efectividad":12250,"▁subs":12251,"-19,":12252,"▁Debes":12253,"▁refugiados":12254,"▁tablas":12255,"▁bosques":12256,"ví":12257,"tuar":12258,"▁inolvid":12259,"▁fantasía":12260,"▁cometer":12261,"▁retor":12262,"mbres":12263,"▁Industri":12264,"▁favorecer":12265,"▁ganadores":12266,"▁Esos":12267,"▁pega":12268,"▁electorales":12269,"▁barcos":12270,"▁escaleras":12271,"▁agro":12272,"▁palo":12273,"▁envía":12274,"▁derra":12275,"▁contempla":12276,"▁atractivos":12277,"▁plantel":12278,"▁Baj":12279,"▁2002":12280,"culas":12281,"▁comunica":12282,"▁costó":12283,"▁contentos":12284,"▁Familia":12285,"▁anex":12286,"▁mundiales":12287,"▁Trad":12288,"▁olvido":12289,"▁transfer":12290,"35":12291,"▁provech":12292,"▁formó":12293,"▁pollo":12294,"▁aprobar":12295,"▁Rog":12296,"▁foros":12297,"▁elevada":12298,"▁saté":12299,"▁darán":12300,"▁Leo":12301,"▁presentarse":12302,"óloga":12303,"▁tira":12304,"▁sangu":12305,"ji":12306,"▁publicados":12307,"▁189":12308,"▁tron":12309,"▁estamp":12310,"▁2001":12311,"▁permanece":12312,"▁Independiente":12313,"▁captar":12314,"▁leo":12315,"mith":12316,"▁príncipe":12317,"▁huella":12318,"▁Xbox":12319,"▁porno":12320,"▁poderosa":12321,"adu":12322,"▁ONG":12323,"▁asistente":12324,"▁funcionalidad":12325,"▁Ub":12326,"TU":12327,"▁imponer":12328,"olla":12329,"▁gastronomía":12330,"▁Conven":12331,"Press":12332,"ótica":12333,"▁bodas":12334,"▁2014.":12335,"▁valle":12336,"▁tratados":12337,"▁cumplió":12338,"▁Habana":12339,"▁adquirido":12340,"▁exitosa":12341,"pensa":12342,"▁llamo":12343,"▁trabajaba":12344,"▁histori":12345,"▁terraza":12346,"chan":12347,"▁pru":12348,"▁sugerencias":12349,"▁indign":12350,"▁mide":12351,"▁química":12352,"uerte":12353,"▁sobr":12354,"▁miedos":12355,"▁manifiesta":12356,"inando":12357,"▁formatos":12358,"ness":12359,"▁nervioso":12360,"▁deportistas":12361,"▁cumpliendo":12362,"▁sencillas":12363,"▁logrando":12364,"▁ayudando":12365,"▁Diputados":12366,"▁Ramírez":12367,"▁hombro":12368,"▁aluminio":12369,"▁diseñadores":12370,"▁mención":12371,"▁Ford":12372,"▁Mesa":12373,"▁externo":12374,"▁000":12375,"▁enfrentarse":12376,"cks":12377,"▁aumentó":12378,"▁entregado":12379,"▁milit":12380,"▁distinguir":12381,"▁Primer":12382,"▁avenida":12383,"▁jaj":12384,"-19.":12385,"fecto":12386,"▁asesinado":12387,"▁Álvaro":12388,"▁Ref":12389,"▁vendedor":12390,"órico":12391,"▁alegre":12392,"▁centímetros":12393,"▁virtuales":12394,"gura":12395,"▁demuestran":12396,"▁bola":12397,"▁decora":12398,"▁enfrentan":12399,"▁>>":12400,"▁colap":12401,"▁cron":12402,"▁sofist":12403,"▁Mujeres":12404,"▁zapatillas":12405,"▁lenguas":12406,"▁quedé":12407,"▁protagonismo":12408,"▁santo":12409,"▁queb":12410,"▁Colo":12411,"▁ruptura":12412,"ómicas":12413,"érrez":12414,"▁senador":12415,"▁mapas":12416,"▁Queremos":12417,"▁certificación":12418,"▁Tel":12419,"▁duró":12420,"lecomunicaciones":12421,"▁definido":12422,"▁hacerme":12423,"usas":12424,"▁crónica":12425,"▁solicitado":12426,"▁presentada":12427,"▁concili":12428,"tadora":12429,".:":12430,"▁Oli":12431,"▁Irlanda":12432,"▁arquitecto":12433,"▁pez":12434,"▁All":12435,"▁masiva":12436,"▁anfitri":12437,"▁acoso":12438,"▁rusa":12439,"▁roto":12440,"▁magnitud":12441,"▁Navarra":12442,"▁daban":12443,"▁Apar":12444,"▁herida":12445,"▁constancia":12446,"quién":12447,"▁botas":12448,"▁Ciencia":12449,"▁Iglesias":12450,"▁Capital":12451,"▁legado":12452,"ensor":12453,"▁etiquetas":12454,"▁cosm":12455,"▁Región":12456,"6)":12457,"▁surgen":12458,"▁diariamente":12459,"▁dejen":12460,"▁evitando":12461,"▁intern":12462,"▁grabado":12463,"▁disper":12464,"▁ordenó":12465,"▁flexible":12466,"▁Dado":12467,"▁acompañada":12468,"▁gay":12469,"▁mochila":12470,"▁extraordinaria":12471,"▁quedamos":12472,"▁medición":12473,"▁percibir":12474,"▁comedor":12475,"▁masas":12476,"▁compartió":12477,"▁XVI":12478,"▁loca":12479,"▁basados":12480,"▁dejará":12481,"▁masaje":12482,"▁masculino":12483,"▁asientos":12484,"▁sanitarios":12485,"▁700":12486,"telo":12487,"cruz":12488,"▁veterin":12489,"▁industrias":12490,"lid":12491,"▁ME":12492,"▁protocolos":12493,"▁Harry":12494,"▁anillo":12495,"▁inú":12496,"▁desplie":12497,"unidad":12498,"▁cú":12499,"tén":12500,"▁rid":12501,"100":12502,"field":12503,"▁guerras":12504,"▁contará":12505,"▁bande":12506,"▁defectos":12507,"▁Blue":12508,"pulos":12509,"▁daría":12510,"tau":12511,"▁sexto":12512,"▁agresión":12513,"áser":12514,"▁convencional":12515,"▁risa":12516,"▁Gonz":12517,"▁cintur":12518,"▁aco":12519,"fasis":12520,"▁decorar":12521,"▁Alianza":12522,"▁cigar":12523,"▁recogida":12524,"▁conserva":12525,"▁símbolos":12526,"▁prostitu":12527,"valuación":12528,"▁sorprendido":12529,"▁Grande":12530,"tañas":12531,"fra":12532,"▁molesta":12533,"▁indu":12534,"utiliz":12535,"dro":12536,"tiemp":12537,"▁cercanas":12538,"laron":12539,"mita":12540,"▁contribución":12541,"▁Alguien":12542,"▁consiguen":12543,"▁transport":12544,"▁conocí":12545,"▁Distrito":12546,"▁escándalo":12547,"▁deseado":12548,"ensos":12549,"teria":12550,"ASA":12551,"▁Teresa":12552,"▁formando":12553,"▁vs":12554,"▁Foro":12555,"▁maquinaria":12556,"Hola":12557,"pados":12558,"▁encargada":12559,"▁eng":12560,"▁volvieron":12561,"▁favoritas":12562,"▁Gutiérrez":12563,"▁llevarlo":12564,"amarca":12565,"▁Paraguay":12566,"▁inmensa":12567,"▁trading":12568,"▁aje":12569,"▁rompe":12570,"▁Datos":12571,"▁Cuar":12572,"▁Local":12573,"▁chinos":12574,"▁pasados":12575,"▁Rela":12576,"▁estimul":12577,"▁empresariales":12578,"▁exportaciones":12579,"▁informaciones":12580,"▁espectador":12581,"▁procesamiento":12582,"▁cement":12583,"▁Deportes":12584,"▁sufri":12585,"▁botones":12586,"▁inmueble":12587,"▁Bene":12588,"▁expuesto":12589,"arita":12590,"▁Formación":12591,"▁Penal":12592,"versión":12593,"▁play":12594,"anti":12595,"▁vigencia":12596,"▁droga":12597,"▁murieron":12598,"▁Inno":12599,"▁acogida":12600,"▁revés":12601,"▁sofá":12602,"▁supuestos":12603,"▁propici":12604,"▁leal":12605,"▁problemática":12606,"▁←":12607,"cionario":12608,"▁Señora":12609,"▁Español":12610,"▁sp":12611,"▁iglesias":12612,"▁infecciones":12613,"▁mensuales":12614,"Hab":12615,"▁én":12616,"▁franceses":12617,"▁ponía":12618,"▁educativas":12619,"▁armado":12620,"ciende":12621,"▁futbolistas":12622,"gri":12623,"▁Joaquín":12624,"▁piz":12625,"▁tercio":12626,"▁baños":12627,"▁religioso":12628,"▁sh":12629,"ENTE":12630,"▁reglamento":12631,"érpre":12632,"▁Cádiz":12633,"▁Cort":12634,"▁abusos":12635,"▁Energía":12636,"▁Deja":12637,"▁crímenes":12638,"▁arrep":12639,"omen":12640,"▁cruel":12641,"▁Rodrigo":12642,"▁activar":12643,"▁lucir":12644,"▁buscaba":12645,"▁hard":12646,"▁Tiempo":12647,"▁mezclar":12648,"▁mágico":12649,"▁transacciones":12650,"▁Esperamos":12651,"▁competitividad":12652,"izadas":12653,"▁sientan":12654,"ituido":12655,"▁minor":12656,"▁suyos":12657,"▁ciertamente":12658,"▁sinies":12659,"▁frenar":12660,"▁Dich":12661,"▁hamb":12662,"▁comunicarse":12663,"▁80%":12664,"idi":12665,"▁refrig":12666,"▁vera":12667,"▁tuya":12668,"▁optim":12669,"▁prohib":12670,"íneas":12671,"▁elige":12672,"▁derivados":12673,"▁fila":12674,"▁avanza":12675,"▁desigualdad":12676,"▁cabec":12677,"▁fotógrafo":12678,"▁judiciales":12679,"▁Hubo":12680,"▁patas":12681,"▁PER":12682,"▁fur":12683,"▁fusión":12684,"▁ocurra":12685,"▁Autónoma":12686,"oxid":12687,"▁webs":12688,"vante":12689,"▁explican":12690,"▁Compañ":12691,"rese":12692,"▁concer":12693,"enio":12694,"???":12695,"▁Sac":12696,"▁Roja":12697,"bita":12698,"▁Roy":12699,"▁Dé":12700,"andra":12701,"▁elog":12702,"▁cubano":12703,"▁filtro":12704,"▁mante":12705,"▁nutrientes":12706,"▁Bet":12707,"iemb":12708,"▁digno":12709,"▁avanzando":12710,"▁presta":12711,"▁queden":12712,"▁indicador":12713,"▁énfasis":12714,"▁salía":12715,"ester":12716,"▁atracción":12717,"ladolid":12718,"culares":12719,"▁supervisión":12720,"▁Op":12721,"▁ejemplar":12722,"▁juzgar":12723,"▁hacerla":12724,"rería":12725,"▁algor":12726,"Estás":12727,"▁trayecto":12728,"▁enseguida":12729,"▁pastor":12730,"▁Sra":12731,"▁desagrad":12732,"▁Vin":12733,"▁nacionalidad":12734,"cesión":12735,"nidad":12736,"▁muere":12737,"uya":12738,"▁equipamiento":12739,"hop":12740,"▁Repres":12741,"chil":12742,"CU":12743,"▁Suecia":12744,"▁abandonado":12745,"▁Pho":12746,"▁vá":12747,"▁camina":12748,"▁Azul":12749,"aco":12750,"▁sostenibilidad":12751,"▁haberlo":12752,"▁Bio":12753,"▁respirar":12754,"▁localidades":12755,"ICO":12756,"▁Disfru":12757,"▁millon":12758,"▁Inici":12759,"▁inevitable":12760,"▁utilizadas":12761,"▁sepas":12762,"▁Moscú":12763,"▁cogni":12764,"▁productivo":12765,"mate":12766,"▁Aparte":12767,"▁Iván":12768,"▁PN":12769,"▁rea":12770,"▁Mana":12771,"▁llevas":12772,"45":12773,"acen":12774,"▁obses":12775,"▁literalmente":12776,"▁Elena":12777,"rie":12778,"▁Inglés":12779,"▁creí":12780,"rico":12781,"anta":12782,"▁Ronal":12783,"21":12784,"▁comportamientos":12785,"dula":12786,"▁pesado":12787,"▁tax":12788,"▁seno":12789,"▁cobra":12790,"▁Guadalajara":12791,"dadores":12792,"▁dorm":12793,"▁obtenidos":12794,"dge":12795,"▁resaltar":12796,"▁informática":12797,"▁procedentes":12798,"▁12,":12799,"▁Big":12800,"▁46":12801,"IDAD":12802,"▁desee":12803,"▁TOD":12804,"▁vacunación":12805,"▁debu":12806,"▁prej":12807,"illones":12808,"▁camas":12809,"▁deciden":12810,"▁bronce":12811,"▁divorcio":12812,"Son":12813,"▁pautas":12814,"▁prohibición":12815,"▁bebe":12816,"▁creadores":12817,"▁Ern":12818,"▁Provincial":12819,"low":12820,"▁Cuatro":12821,"▁DI":12822,"ísmo":12823,"▁sobra":12824,"▁porte":12825,"▁pierden":12826,"▁WordPress":12827,"▁ensal":12828,"▁AF":12829,"▁idón":12830,"▁utilizó":12831,"▁neur":12832,"▁listos":12833,"ux":12834,"▁hero":12835,"▁tour":12836,"back":12837,"▁ratific":12838,"▁hola":12839,"▁estú":12840,"▁Dal":12841,"▁Comis":12842,"▁12.":12843,"▁quejas":12844,"fonía":12845,"ñones":12846,"▁salvación":12847,"▁administrar":12848,"▁Maduro":12849,"▁distancias":12850,"▁salva":12851,"▁inconvenientes":12852,"▁tendrían":12853,"▁robot":12854,"▁frontal":12855,"tían":12856,"▁consejero":12857,"mejor":12858,"▁concej":12859,"▁acompañamiento":12860,"▁Desta":12861,"amora":12862,"▁broma":12863,"tto":12864,"▁abuelos":12865,"▁Obrador":12866,"▁paral":12867,"▁partidas":12868,"▁yoga":12869,"▁Promo":12870,"ep":12871,"mel":12872,"▁camiones":12873,"▁fanáticos":12874,"▁bala":12875,"▁encuest":12876,"▁Puebla":12877,"cería":12878,"▁energético":12879,"▁católica":12880,"▁quiénes":12881,"sab":12882,"▁nubes":12883,"▁oscura":12884,"▁mito":12885,"IFA":12886,"▁Hy":12887,"▁Tecnología":12888,"cker":12889,"▁Herrera":12890,"▁enfati":12891,"▁proponer":12892,"▁gritos":12893,"▁Post":12894,"Tu":12895,"▁requisito":12896,"▁asum":12897,"▁11.":12898,"GR":12899,"▁diseñada":12900,"Buen":12901,"▁ancianos":12902,"▁Calle":12903,"▁Segui":12904,"▁financiamiento":12905,"restre":12906,"ecos":12907,"▁denomina":12908,"▁expediente":12909,"▁Coo":12910,"▁anima":12911,"▁ing":12912,"Cuánto":12913,"ervan":12914,"▁Empleo":12915,"▁relojes":12916,"▁tomamos":12917,"▁necesites":12918,"▁señalan":12919,"▁tribunales":12920,"▁cultivos":12921,"▁atractiva":12922,"▁Boy":12923,"▁vertical":12924,"▁cómp":12925,"▁atento":12926,"▁carpeta":12927,"▁icono":12928,"▁reservar":12929,"▁mix":12930,"pula":12931,"▁cie":12932,"▁usarlo":12933,"▁puta":12934,"▁Obviamente":12935,"▁IVA":12936,"▁gubernamentales":12937,"▁gases":12938,"▁agricul":12939,"▁did":12940,"▁47":12941,"▁Cultural":12942,"mó":12943,"▁apres":12944,"▁compor":12945,"pón":12946,"▁ayuden":12947,"▁trenes":12948,"▁serlo":12949,"▁CV":12950,"▁limitar":12951,"▁corresponden":12952,"▁Defin":12953,"iosas":12954,"▁logran":12955,"▁tenis":12956,"trico":12957,"▁navegar":12958,"mpl":12959,"▁exponer":12960,"▁calef":12961,"▁tribut":12962,"▁ocultar":12963,"▁levantó":12964,"también":12965,"▁procede":12966,"▁glu":12967,"▁duele":12968,"ugh":12969,"▁Nex":12970,"▁sustancia":12971,"▁Park":12972,"▁corrientes":12973,"▁Villar":12974,"▁procu":12975,"▁trastornos":12976,"bus":12977,"▁digan":12978,"▁cumpla":12979,"ficios":12980,"ator":12981,"▁consag":12982,"▁iniciales":12983,"▁seca":12984,"▁SO":12985,"▁digamos":12986,"baciones":12987,"▁guapa":12988,"▁culo":12989,"▁nomin":12990,"▁Fra":12991,"▁besti":12992,"▁explí":12993,"dulos":12994,"▁anoche":12995,"▁Comple":12996,"▁Biblio":12997,"▁comedia":12998,"▁Estás":12999,"▁obes":13000,"diós":13001,"▁barreras":13002,"▁resol":13003,"▁manchas":13004,"TS":13005,"▁preparada":13006,"▁supl":13007,"7)":13008,"▁Medicina":13009,"▁devo":13010,"▁meditación":13011,"quetas":13012,"▁algodón":13013,"▁previos":13014,"reto":13015,"ellos":13016,"▁Católica":13017,"▁tomas":13018,"▁referentes":13019,"▁diré":13020,"▁bombar":13021,"pren":13022,"gramas":13023,"8)":13024,"3)":13025,"▁duras":13026,"Bo":13027,"▁vil":13028,"▁síndrome":13029,"▁Mucho":13030,"Está":13031,"▁religiosas":13032,"▁cruce":13033,"▁Alma":13034,"▁estabil":13035,"▁migrantes":13036,"usieron":13037,"▁preval":13038,"▁proclam":13039,"▁Gener":13040,"▁besos":13041,"▁aceptado":13042,"▁Aten":13043,"▁Alta":13044,"▁universitarios":13045,"▁personalizado":13046,"gante":13047,"▁saldrá":13048,"▁constitución":13049,"▁Toledo":13050,"▁saco":13051,"▁extensa":13052,"▁creativa":13053,"▁Marketing":13054,"▁intérpre":13055,"vá":13056,"▁temb":13057,"▁textura":13058,"▁Registro":13059,"▁competitivo":13060,"▁debilidad":13061,"céu":13062,"▁SS":13063,"▁lavar":13064,"▁Tig":13065,"▁limita":13066,"▁Texas":13067,"▁lenta":13068,"▁exqui":13069,"▁estabas":13070,"▁diseñados":13071,"istente":13072,"▁candidatura":13073,"▁contradic":13074,"▁internas":13075,"▁escuchando":13076,"▁físicamente":13077,"▁entornos":13078,"▁rodean":13079,"▁finalizó":13080,"▁exposiciones":13081,"▁Már":13082,"▁permisos":13083,"▁minerales":13084,"▁prohibido":13085,"▁lecciones":13086,"▁Yu":13087,"▁musica":13088,"▁intentan":13089,"▁lavado":13090,"▁USB":13091,"▁apropiado":13092,"▁binarias":13093,"▁core":13094,"▁yendo":13095,"▁trastorno":13096,"émon":13097,"▁defensor":13098,"▁interv":13099,"▁Precis":13100,"▁Feria":13101,"usal":13102,"▁públicamente":13103,"▁promesas":13104,"▁vínculos":13105,"▁creencia":13106,"▁prevista":13107,"▁láp":13108,"▁52":13109,"▁vitamina":13110,"▁Tab":13111,"▁ministra":13112,"▁ordenadores":13113,"▁complementos":13114,"▁bail":13115,"▁navidad":13116,"▁prefiere":13117,"▁th":13118,"ganda":13119,"▁fenómenos":13120,"▁verdaderos":13121,"▁gab":13122,"▁retirada":13123,"▁BM":13124,"▁Quin":13125,"▁irán":13126,"quilib":13127,"▁afirman":13128,"▁Estra":13129,"▁mur":13130,"▁guías":13131,"▁emplear":13132,"▁querida":13133,"▁acondicionado":13134,"▁conforman":13135,"▁petrol":13136,"▁rentable":13137,"▁típica":13138,"▁estrecha":13139,"▁incumpli":13140,"▁saludos":13141,"▁separa":13142,"▁algorit":13143,"▁Thomas":13144,"▁insta":13145,"▁tardar":13146,"▁mama":13147,"ADA":13148,"dam":13149,"▁sólida":13150,"▁stre":13151,"▁deshacer":13152,"▁triple":13153,"▁bancaria":13154,"tase":13155,"▁cansan":13156,"▁cómodos":13157,"▁coalición":13158,"▁mostramos":13159,"▁mural":13160,"ther":13161,"▁hectáreas":13162,"▁contemplar":13163,"▁capitalismo":13164,"▁Confi":13165,"▁2007,":13166,"▁licencias":13167,"▁determina":13168,"dem":13169,"▁meteor":13170,"▁reconocidos":13171,"▁plantear":13172,"▁Fuerzas":13173,"▁fumar":13174,"▁NBA":13175,"rillos":13176,"CH":13177,"fac":13178,"Ahora":13179,"▁Tomás":13180,"▁emitir":13181,"▁joyas":13182,"▁canto":13183,"▁seamos":13184,"orra":13185,"▁Jam":13186,"▁Ul":13187,"▁adolescencia":13188,"▁griego":13189,"ñoz":13190,"▁aportación":13191,"▁tenerlo":13192,"▁enmar":13193,"▁asegú":13194,"▁motiva":13195,"▁perdieron":13196,"—.":13197,"átil":13198,"▁cenar":13199,"gers":13200,"▁comprende":13201,"▁comercios":13202,"▁Zel":13203,"▁Valladolid":13204,"▁museos":13205,"▁recordado":13206,"▁queréis":13207,"▁compré":13208,"person":13209,"scar":13210,"▁concepción":13211,"▁Pes":13212,"▁concretos":13213,"Tienes":13214,"▁surgir":13215,"▁religiosos":13216,"▁basadas":13217,"▁pagando":13218,"ómicos":13219,"▁espectaculares":13220,"▁CF":13221,"▁egi":13222,"▁Cat":13223,"▁Street":13224,"zamos":13225,"▁operador":13226,"▁italiana":13227,"▁japonesa":13228,"▁didác":13229,"▁subje":13230,"▁premis":13231,"▁bicicletas":13232,"▁contagi":13233,"▁usados":13234,"▁molde":13235,"élgica":13236,"▁criminal":13237,"uerzo":13238,"▁dirigidos":13239,"▁galería":13240,"caso":13241,"uli":13242,"▁intimidad":13243,"▁preguntado":13244,"▁llegas":13245,"▁repas":13246,"úsica":13247,"▁estir":13248,"hía":13249,"▁Psic":13250,"▁períodos":13251,"85":13252,"▁Isa":13253,"—,":13254,"▁transmite":13255,"▁jubilación":13256,"▁pegar":13257,"▁pales":13258,"▁dol":13259,"▁denunciar":13260,"▁venezolano":13261,"▁cuerda":13262,"▁planteado":13263,"▁''":13264,"cientos":13265,"▁Asuntos":13266,"▁2012.":13267,"▁grasas":13268,"▁árabe":13269,"▁chileno":13270,"uj":13271,"▁data":13272,"ladas":13273,"▁lecturas":13274,"▁imperio":13275,"▁láser":13276,"▁Podr":13277,"▁Brus":13278,"▁estal":13279,"▁recibirá":13280,"▁aqué":13281,"▁descom":13282,"▁disponen":13283,"▁equivocado":13284,"úmenes":13285,"éctor":13286,"▁LAS":13287,"▁Lis":13288,"▁volviendo":13289,"▁recomendado":13290,"▁pones":13291,"semos":13292,"▁traves":13293,"▁Argent":13294,"▁apetece":13295,"ísica":13296,"dolfo":13297,"jate":13298,"▁solicitó":13299,"▁ocurren":13300,"▁puntuación":13301,"▁derrib":13302,"▁búsquedas":13303,"▁difundir":13304,"ali":13305,"▁deses":13306,"▁Crea":13307,"▁señores":13308,"▁Doctor":13309,"nar":13310,"▁concluye":13311,"Sabes":13312,"▁mega":13313,"▁mencionados":13314,"tter":13315,"xia":13316,"▁traído":13317,"▁aulas":13318,"▁verán":13319,"▁dedicó":13320,"▁acusaciones":13321,"▁Pueblo":13322,"▁videojuego":13323,"jados":13324,"▁pares":13325,"▁gros":13326,"▁primi":13327,"éndome":13328,"cosa":13329,"▁horizonte":13330,"toras":13331,"▁anda":13332,"gio":13333,"▁Resulta":13334,"Gracias":13335,"▁Justo":13336,"▁pasear":13337,"pita":13338,"▁profundizar":13339,"▁deterioro":13340,"▁considerados":13341,"▁Phil":13342,"▁Continu":13343,"▁Legisla":13344,"▁dudes":13345,"▁Ide":13346,"▁bolso":13347,"▁Campo":13348,"▁ubica":13349,"▁onda":13350,"▁dependen":13351,"▁inmigración":13352,"▁metido":13353,"▁motoci":13354,"▁policiales":13355,"▁decan":13356,"▁aprobada":13357,"▁angustia":13358,"▁Eva":13359,"▁CA":13360,"tarte":13361,"▁Movimiento":13362,"rác":13363,"▁abaste":13364,"urgo":13365,"▁desconec":13366,"▁preocupado":13367,"▁monte":13368,"▁comerciantes":13369,"ueba":13370,"▁Empresa":13371,"▁pasadas":13372,"▁USA":13373,"▁Muñoz":13374,"ciados":13375,"▁exteriores":13376,"▁criptom":13377,"▁terroristas":13378,"▁Ciudadanos":13379,"▁probabilidades":13380,"▁Gén":13381,"▁fiebre":13382,"▁desactiv":13383,"ólica":13384,"▁varia":13385,"▁inda":13386,"▁Fueron":13387,"▁alb":13388,"iense":13389,"ecemos":13390,"dela":13391,"▁académica":13392,"▁analiza":13393,"ross":13394,"▁insign":13395,"▁estarás":13396,"▁Guerrero":13397,")..":13398,"▁enseñanzas":13399,"▁brecha":13400,"▁Ele":13401,"▁disputa":13402,"▁sólido":13403,"ñal":13404,"▁fallecimiento":13405,"▁sindical":13406,"▁inconveniente":13407,"▁herido":13408,"rimonio":13409,"▁estáis":13410,"Todo":13411,"ding":13412,"▁Eje":13413,"cuer":13414,"▁buscado":13415,"▁Paso":13416,"▁Joe":13417,"▁tortu":13418,"▁Pilar":13419,"▁ponerle":13420,"▁Galaxy":13421,"randa":13422,"▁autent":13423,"▁Medel":13424,"▁solía":13425,"▁incorrec":13426,"▁Gin":13427,"▁fuertemente":13428,"pias":13429,"▁admitir":13430,"▁reyes":13431,"▁jejeje":13432,"▁Mora":13433,"▁Corona":13434,"▁tratarse":13435,"pone":13436,"▁muchísimas":13437,"ivi":13438,"▁FIFA":13439,"▁Í":13440,"▁confirmación":13441,"▁mediodía":13442,"▁densidad":13443,"▁economías":13444,"▁far":13445,"opol":13446,"vila":13447,"iblemente":13448,"▁danza":13449,"df":13450,"▁Spa":13451,"▁fallos":13452,"unar":13453,"▁escribo":13454,"▁recomien":13455,"▁localización":13456,"▁cargas":13457,"▁ingenieros":13458,"cesis":13459,"▁obispo":13460,"▁filtros":13461,"▁alimentar":13462,"▁unirse":13463,"ositores":13464,"▁Alfredo":13465,"▁Hit":13466,"▁afirmación":13467,"▁dejé":13468,"▁Agustín":13469,"▁inclusive":13470,"▁cristiano":13471,"▁egip":13472,"▁exacta":13473,"▁tabaco":13474,"PR":13475,"▁formada":13476,"▁Descar":13477,"▁declarar":13478,"▁desafi":13479,"éndonos":13480,"▁nó":13481,"▁barrera":13482,"▁Recono":13483,"▁CEO":13484,"lanos":13485,"▁recompensa":13486,"biliario":13487,"▁flota":13488,"Rec":13489,"▁Carolina":13490,"▁libremente":13491,"▁arranque":13492,"▁acostumbrados":13493,"▁crucial":13494,"▁resulte":13495,"▁azules":13496,"▁nombrar":13497,"ecut":13498,"▁rojos":13499,"▁Héctor":13500,"▁anuncia":13501,"▁malestar":13502,"▁orgulloso":13503,"▁enfrentamiento":13504,"▁agrícola":13505,"▁reclamar":13506,"▁legi":13507,"▁divertir":13508,"▁justificar":13509,"▁demócra":13510,"▁llamas":13511,"▁obtención":13512,"▁telefónica":13513,"▁och":13514,"▁pinturas":13515,"▁sufriendo":13516,"?\",":13517,"▁especialidad":13518,"▁cercanía":13519,"dijo":13520,"guard":13521,"tibilidad":13522,"alim":13523,"▁Ingeniería":13524,"entados":13525,"▁ángulo":13526,"enciado":13527,"▁Torn":13528,"-6":13529,"▁deseamos":13530,"▁falsas":13531,"▁patria":13532,"▁desplazamiento":13533,"Mo":13534,"▁Vega":13535,"▁hered":13536,"▁entendimiento":13537,"▁sirva":13538,"▁vecin":13539,"▁surgi":13540,"▁Felici":13541,"Pre":13542,"▁mentir":13543,"▁piano":13544,"▁sabían":13545,"ificados":13546,"▁Maria":13547,"dé":13548,"▁incendios":13549,"▁acercó":13550,"▁huir":13551,"▁despo":13552,"▁comprometido":13553,"abell":13554,"quera":13555,"▁medie":13556,"▁borrar":13557,"▁recip":13558,"▁queja":13559,"▁inspección":13560,"▁Estre":13561,"▁llaves":13562,"▁consiguiendo":13563,"▁cortas":13564,"▁Extre":13565,"▁persecución":13566,"▁Alicante":13567,"▁trasladado":13568,"▁ocupan":13569,"▁chan":13570,"▁mantenga":13571,"▁supuesta":13572,"▁íbamos":13573,"▁reconstrucción":13574,"▁extiende":13575,"▁corrup":13576,"▁Vel":13577,"▁Relaciones":13578,"▁Juego":13579,"▁horror":13580,"▁esperanzas":13581,"▁Jane":13582,"▁emocionante":13583,"▁hiciste":13584,"▁Sw":13585,"▁represión":13586,"▁originalmente":13587,"▁cansado":13588,"▁2013.":13589,"▁Supremo":13590,"▁Mem":13591,"So":13592,"▁horrible":13593,"▁Atlán":13594,"▁sencillamente":13595,"▁SI":13596,"▁Libre":13597,"▁rodilla":13598,"▁subiendo":13599,"▁proporcionan":13600,"moh":13601,"▁observaciones":13602,"▁secuencia":13603,"▁LO":13604,"usk":13605,"▁exportación":13606,"eban":13607,"ique":13608,"▁ruidos":13609,"▁Pacífico":13610,"Tra":13611,"▁dándole":13612,"dentemente":13613,"▁40%":13614,"▁Motor":13615,"▁sensa":13616,"▁incorpora":13617,"▁alas":13618,"▁mostraron":13619,"▁cubierto":13620,"▁cables":13621,"▁truco":13622,"▁advierte":13623,"biera":13624,"▁pelear":13625,"cá":13626,"▁exha":13627,"▁eficaces":13628,"▁demor":13629,"▁Chicago":13630,"▁arrancar":13631,"▁Ojalá":13632,"▁emprendimiento":13633,"direc":13634,"fri":13635,"▁olímp":13636,"▁asimil":13637,"▁medalla":13638,"▁burbu":13639,"▁subido":13640,"▁trasero":13641,"▁West":13642,"▁presos":13643,"▁emprendedor":13644,"▁integra":13645,"▁Adi":13646,"▁Xia":13647,"23":13648,"▁princesa":13649,"▁cobre":13650,"▁consolid":13651,"▁administrativo":13652,"▁encantaría":13653,"bs":13654,"▁cima":13655,"▁Integ":13656,"ónicos":13657,"▁TR":13658,"▁Sanidad":13659,"▁famosas":13660,"▁seguirán":13661,"▁Honduras":13662,"▁declara":13663,"▁bonitos":13664,"▁despro":13665,"aby":13666,"▁mentales":13667,"▁prácticos":13668,"▁virtudes":13669,"bloque":13670,"▁vaca":13671,"fol":13672,"▁ganan":13673,"▁inest":13674,"sable":13675,"▁rodeado":13676,"▁torneos":13677,"▁auric":13678,"ule":13679,"▁Bélgica":13680,"timas":13681,"▁administrativa":13682,"▁estro":13683,"▁reunió":13684,"▁EX":13685,"ótico":13686,"▁idén":13687,"▁sacu":13688,"▁Verde":13689,"▁Pág":13690,"▁Estatal":13691,"▁exitoso":13692,"istía":13693,"▁preferencia":13694,"▁inac":13695,"▁inglesa":13696,"▁Termin":13697,"▁dedican":13698,"celes":13699,"▁festiv":13700,"chester":13701,"▁sonre":13702,"800":13703,"▁Recur":13704,"▁;)":13705,"▁imprimir":13706,"▁turísticos":13707,"▁mentalidad":13708,"▁errón":13709,"▁causó":13710,"▁aguantar":13711,"formación":13712,"▁maíz":13713,"ampa":13714,"▁Octubre":13715,"▁Efec":13716,"▁Pascu":13717,"▁denunció":13718,"▁billetes":13719,"▁soport":13720,"▁Nicara":13721,"▁49":13722,"▁efectuar":13723,"▁primas":13724,"▁despleg":13725,"encialmente":13726,"▁milagro":13727,"▁atentos":13728,"▁intermedi":13729,"▁personalizada":13730,"▁establecidas":13731,"▁aroma":13732,"▁agujero":13733,"▁almas":13734,"▁Mary":13735,"▁Medina":13736,"▁corredores":13737,"▁dispuesta":13738,"▁187":13739,"▁delincuentes":13740,"▁Fuentes":13741,"▁11,":13742,
[...]
